{"<|endoftext|>": 0, "<|pad|>": 1, "<|unk|>": 2, "<|bos|>": 3, "\u0000": 4, "\u0001": 5, "\u0002": 6, "\u0003": 7, "\u0004": 8, "\u0005": 9, "\u0006": 10, "\u0007": 11, "\b": 12, "\t": 13, "\n": 14, "\u000b": 15, "\f": 16, "\r": 17, "\u000e": 18, "\u000f": 19, "\u0010": 20, "\u0011": 21, "\u0012": 22, "\u0013": 23, "\u0014": 24, "\u0015": 25, "\u0016": 26, "\u0017": 27, "\u0018": 28, "\u0019": 29, "\u001a": 30, "\u001b": 31, "\u001c": 32, "\u001d": 33, "\u001e": 34, "\u001f": 35, " ": 36, "!": 37, "\"": 38, "#": 39, "$": 40, "%": 41, "&": 42, "'": 43, "(": 44, ")": 45, "*": 46, "+": 47, ",": 48, "-": 49, ".": 50, "/": 51, "0": 52, "1": 53, "2": 54, "3": 55, "4": 56, "5": 57, "6": 58, "7": 59, "8": 60, "9": 61, ":": 62, ";": 63, "<": 64, "=": 65, ">": 66, "?": 67, "@": 68, "A": 69, "B": 70, "C": 71, "D": 72, "E": 73, "F": 74, "G": 75, "H": 76, "I": 77, "J": 78, "K": 79, "L": 80, "M": 81, "N": 82, "O": 83, "P": 84, "Q": 85, "R": 86, "S": 87, "T": 88, "U": 89, "V": 90, "W": 91, "X": 92, "Y": 93, "Z": 94, "[": 95, "\\": 96, "]": 97, "^": 98, "_": 99, "`": 100, "a": 101, "b": 102, "c": 103, "d": 104, "e": 105, "f": 106, "g": 107, "h": 108, "i": 109, "j": 110, "k": 111, "l": 112, "m": 113, "n": 114, "o": 115, "p": 116, "q": 117, "r": 118, "s": 119, "t": 120, "u": 121, "v": 122, "w": 123, "x": 124, "y": 125, "z": 126, "{": 127, "|": 128, "}": 129, "~": 130, "": 131, "": 132, "": 133, "": 134, "": 135, "": 136, "": 137, "": 138, "": 139, "": 140, "": 141, "": 142, "": 143, "": 144, "": 145, "": 146, "": 147, "": 148, "": 149, "": 150, "": 151, "": 152, "": 153, "": 154, "": 155, "": 156, "": 157, "": 158, "": 159, "": 160, "": 161, "": 162, "": 163, " ": 164, "¡": 165, "¢": 166, "£": 167, "¤": 168, "¥": 169, "¦": 170, "§": 171, "¨": 172, "©": 173, "ª": 174, "«": 175, "¬": 176, "­": 177, "®": 178, "¯": 179, "°": 180, "±": 181, "²": 182, "³": 183, "´": 184, "µ": 185, "¶": 186, "·": 187, "¸": 188, "¹": 189, "º": 190, "»": 191, "¼": 192, "½": 193, "¾": 194, "¿": 195, "À": 196, "Á": 197, "Â": 198, "Ã": 199, "Ä": 200, "Å": 201, "Æ": 202, "Ç": 203, "È": 204, "É": 205, "Ê": 206, "Ë": 207, "Ì": 208, "Í": 209, "Î": 210, "Ï": 211, "Ð": 212, "Ñ": 213, "Ò": 214, "Ó": 215, "Ô": 216, "Õ": 217, "Ö": 218, "×": 219, "Ø": 220, "Ù": 221, "Ú": 222, "Û": 223, "Ü": 224, "Ý": 225, "Þ": 226, "ß": 227, "à": 228, "á": 229, "â": 230, "ã": 231, "ä": 232, "å": 233, "æ": 234, "ç": 235, "è": 236, "é": 237, "ê": 238, "ë": 239, "ì": 240, "í": 241, "î": 242, "ï": 243, "ð": 244, "ñ": 245, "ò": 246, "ó": 247, "ô": 248, "õ": 249, "ö": 250, "÷": 251, "ø": 252, "ù": 253, "ú": 254, "û": 255, "ü": 256, "ý": 257, "þ": 258, "ÿ": 259, "  ": 260, ".  ": 261, "e ": 262, "= ": 263, " = ": 264, "s ": 265, "in": 266, "er": 267, "d ": 268, "ti": 269, "an": 270, "th": 271, " +": 272, " + ": 273, " -": 274, "on": 275, "x^": 276, "# ": 277, ": ": 278, "t ": 279, "x)": 280, "y ": 281, " - ": 282, ", ": 283, "the ": 284, " f": 285, "## ": 286, "or": 287, "tion": 288, "(x)": 289, "and ": 290, "of": 291, "ra": 292, "es ": 293, "ol": 294, "ve ": 295, "x = ": 296, "en": 297, "te ": 298, "wer": 299, "1.  ": 300, "2.  ": 301, "x + ": 302, "om": 303, "(x) = ": 304, "swer": 305, "x^2": 306, "Sol": 307, "of ": 308, "va": 309, " and ": 310, "or ": 311, "is ": 312, "ea": 313, "Â°": 314, "An": 315, "0Â°": 316, "Answer": 317, "x - ": 318, "3.  ": 319, "4.  ": 320, "ar": 321, ".  ## ": 322, "6.  ": 323, "5.  ": 324, "ind ": 325, "ua": 326, " d": 327, "ef": 328, "Find ": 329, "it": 330, "Ex": 331, "ci": 332, "in ": 333, "o ": 334, "ed ": 335, "les ": 336, "si": 337, "  ## ": 338, "efin": 339, "tion: ": 340, " 2.  ": 341, "1/": 342, "eri": 343, "efini": 344, "ha": 345, "ution: ": 346, "Solution: ": 347, "ce ": 348, "ter": 349, "val": 350, "â": 351, "Answer: ": 352, ").  ": 353, "co": 354, "es": 355, "um": 356, "eg": 357, "teg": 358, "tive ": 359, "di": 360, "ri": 361, "ro": 362, "area": 363, ") = ": 364, "rac": 365, "ly ": 366, "x^2 + ": 367, "â«": 368, "le ": 369, "sin": 370, "integ": 371, "pu": 372, "Solve ": 373, "st": 374, "Th": 375, "ac": 376, "tion ": 377, "10": 378, "a ": 379, "l ": 380, "is the ": 381, " f(x) = ": 382, "me": 383, "Eval": 384, "uate ": 385, "Evaluate ": 386, "deri": 387, "deriva": 388, "ts ": 389, "to ": 390, "Ï": 391, "1/2": 392, "ompu": 393, "ompute ": 394, "cos": 395, "or x": 396, "su": 397, "derivative ": 398, "60Â°": 399, "ba": 400, "ang": 401, "integra": 402, "x^3": 403, "x = -": 404, "fer": 405, "qua": 406, "Find the ": 407, "ou": 408, "ex": 409, " 3.  ": 410, " 5.  ": 411, " 6.  ": 412, " 4.  ": 413, " b": 414, "am": 415, "rc": 416, "x^2 - ": 417, "id": 418, "f'": 419, "te integra": 420, " dx": 421, "efinite integra": 422, "l â«": 423, "efinite integral â«": 424, "A ": 425, "li": 426, "ey ": 427, "gh": 428, "feren": 429, "ber": 430, "umber": 431, " or ": 432, "ul": 433, "circ": 434, " K": 435, " P": 436, "- P": 437, "Defini": 438, "Ru": 439, "Wor": 440, "ked ": 441, "ples ": 442, "ses ": 443, "erci": 444, "tice ": 445, "Answer K": 446, ".  ## Ru": 447, "Exam": 448, "Exerci": 449, "  ## Defini": 450, "  ## Exerci": 451, "ractice ": 452, "ey 1.  ": 453, "- Practice ": 454, "Worked ": 455, "ples 1.  ": 456, "ses 1.  ": 457, "Answer Key 1.  ": 458, ".  ## Rules ": 459, "Examples 1.  ": 460, "  ## Definition ": 461, "  ## Exercises 1.  ": 462, "Worked Examples 1.  ": 463, ".# ": 464, "rom": 465, "ei": 466, "term": 467, "definite integral â«": 468, " of ": 469, "at ": 470, "pro": 471, "its ": 472, "lit": 473, "has ": 474, " (": 475, ".  ## Worked Examples 1.  ": 476, " in ": 477, "th ": 478, "of f(x) = ": 479, "derivative of f(x) = ": 480, "Find the derivative of f(x) = ": 481, "f'(x) = ": 482, " m": 483, "The ": 484, ".  Solution: ": 485, "act": 486, "Evaluate the ": 487, "number": 488, "15": 489, ".  Answer: ": 490, "bi": 491, "bilit": 492, "sub": 493, " -- Practice ": 494, "iv": 495, "ing": 496, "area = ": 497, "rom ": 498, " is ": 499, "hei": 500, "heigh": 501, "re": 502, "/3": 503, "Wha": 504, "What ": 505, "se": 506, "r ": 507, "Compute ": 508, "ow": 509, " + C": 510, "12": 511, "peri": 512, "meter": 513, "perimeter": 514, "Find its ": 515, "le has ": 516, "Find its area": 517, "umferen": 518, "circumferen": 519, "circumference ": 520, "cos(": 521, "for x": 522, "Solve for x": 523, "Solve for x: ": 524, "babilit": 525, "x = 3": 526, "sid": 527, "com": 528, "y of ": 529, "1)": 530, "A f": 531, ".  ## Answer Key 1.  ": 532, "; ": 533, "indefinite integral â«": 534, "sin(": 535, " and g": 536, "po": 537, ", 3": 538, "an ": 539, " = 2": 540, "equa": 541, " = -": 542, "valu": 543, " ex": 544, "out": 545, "est ": 546, "ent ": 547, "cd": 548, "gcd": 549, "gcd(": 550, "[0Â°": 551, "(x) = 1/2": 552, "60Â°]": 553, " in [0Â°": 554, ", 360Â°]": 555, " in [0Â°, 360Â°]": 556, "/d": 557, "d/d": 558, "x[": 559, "d/dx[": 560, "posi": 561, "by ": 562, "et": 563, "Evaluate the indefinite integral â«": 564, "s, ": 565, ") ": 566, "ct": 567, "tip": 568, "ultip": 569, "(g": 570, "x - 1": 571, "*cos(": 572, "probabilit": 573, "answer": 574, "x + 1": 575, ", s": 576, " dx.  ": 577, "tic": 578, " from ": 579, " = 0": 580, " to ": 581, "actor ": 582, "ist": 583, "un": 584, "Find its area and ": 585, "rol": 586, "roll": 587, " and heigh": 588, "angle has ": 589, " and height ": 590, "/2": 591, " by ": 592, "s in ": 593, "ai": 594, ".  What ": 595, "is the probabilit": 596, "A fai": 597, ".  What is the probabilit": 598, "A fair ": 599, ".  What is the probability of ": 600, "e of ": 601, "that ": 602, " at ": 603, "20": 604, " for x": 605, "(x) = 1/2 for x": 606, "(x) = 1/2 for x in [0Â°, 360Â°]": 607, "ad": 608, "it ": 609, "compute ": 610, ", compute ": 611, ", so ": 612, " = 3": 613, "lly ": 614, "multip": 615, "terms ": 616, "wid": 617, " div": 618, "ation": 619, "div": 620, "thme": 621, "thmetic": 622, "per": 623, "to": 624, "t valu": 625, "act valu": 626, "exact valu": 627, "(n": 628, "pand ": 629, "pri": 630, "ts of ": 631, "subse": 632, "subsets of ": 633, "quad": 634, "^2": 635, "ants ": 636, "od ": 637, "outcom": 638, "pp": 639, "trac": 640, "circumference = ": 641, "numbers ": 642, " th": 643, "low": 644, "lowest ": 645, " = 1": 646, "positive ": 647, "s.  ": 648, "a, ": 649, "a, b": 650, "easu": 651, "en ": 652, ").  Solution: ": 653, "ent": 654, "lin": 655, " or x = ": 656, "ve the ": 657, "e is ": 658, "ble ": 659, " divid": 660, "P(": 661, "y -- Practice ": 662, "prim": 663, "omet": 664, "ometr": 665, "Giv": 666, "f(g": 667, "en f(x) = ": 668, " and g(x) = ": 669, ", compute f(g": 670, "Given f(x) = ": 671, ", compute f(g(": 672, "-1": 673, "(x + ": 674, "ction": 675, "unction": 676, "*sin(": 677, "em": 678, "f(x) = ": 679, "Evaluate f(x) = ": 680, "any ": 681, "rul": 682, "rule": 683, "add ": 684, "ed on": 685, "] = ": 686, "(x - ": 687, "% of ": 688, "â": 689, "circumference (": 690, "ke": 691, "like": 692, "width ": 693, "actly ": 694, "rea": 695, "tri": 696, ") *": 697, "cm": 698, "lcm": 699, "lcm(": 700, " dx = ": 701, "integer": 702, "18": 703, "divi": 704, "oth ": 705, " both ": 706, "r1": 707, "r2": 708, "x^3 - ": 709, "100": 710, "rem": 711, "x^3 + ": 712, "14": 713, "16": 714, " is the ": 715, "a*": 716, "la": 717, ".  The ": 718, "In": 719, "Expand ": 720, "Expand (": 721, "4x - ": 722, "I and ": 723, "rants ": 724, "in quad": 725, "positive in quad": 726, "I and I": 727, "rants I and I": 728, "positive in quadrants I and I": 729, "Ïr": 730, "?  ": 731, "  Solution: ": 732, "?    Solution: ": 733, "lea": 734, "00Â°": 735, "x = 60Â°": 736, "stu": 737, " measu": 738, "gcd(a, b": 739, "in is ": 740, "x + 2": 741, " g": 742, "fi": 743, "Factor ": 744, "tract ": 745, "tan": 746, "es the ": 747, "numbers that ": 748, ": d/dx[": 749, ", d/dx[": 750, "150Â°": 751, "x = 30Â°": 752, " ": 753, "â ": 754, "45": 755, "fferen": 756, ".  6.  ": 757, "fferenti": 758, "ive the ": 759, " in lowest ": 760, " and give the ": 761, "answer in lowest ": 762, " and give the answer in lowest ": 763, " and give the answer in lowest term": 764, "â« ": 765, "wer ": 766, " = 2*": 767, "Evaluate the indefinite integral â« (": 768, "Evaluate the indefinite integral â« ": 769, ".  5.  ": 770, "What is ": 771, "definite integral â« from ": 772, "Evaluate the definite integral â« from ": 773, "le area = ": 774, "height": 775, ".  4.  ": 776, ".  3.  ": 777, "2x - ": 778, "ev": 779, ".  C": 780, ", th": 781, "prime ": 782, ": (": 783, "Tri": 784, "ax + ": 785, "ax + b": 786, "Then": 787, "tit": 788, "ir": 789, ".  2.  ": 790, "4)": 791, ") * (": 792, "1/6": 793, "40": 794, "13": 795, " = (": 796, "Find the exact valu": 797, "Find the exact value of ": 798, " the ": 799, "3)": 800, "-2": 801, "From ": 802, "ct ": 803, "how": 804, "ze ": 805, "inct ": 806, " dist": 807, "item": 808, "size ": 809, " many ": 810, " exist": 811, "s, how": 812, "subsets of size ": 813, "inct item": 814, " distinct item": 815, " many subsets of size ": 816, "s, how many subsets of size ": 817, " distinct items, how many subsets of size ": 818, "wh": 819, "1x - ": 820, "us ": 821, ", circumference = ": 822, "radi": 823, "ve answer": 824, "of Ï": 825, "Ï, circumference = ": 826, "A circ": 827, "le has radi": 828, "Find its area and circumference (": 829, "s in terms ": 830, "leave answer": 831, "A circle has radi": 832, "Find its area and circumference (leave answer": 833, "s in terms of Ï": 834, "A circle has radius ": 835, "Find its area and circumference (leave answers in terms of Ï": 836, "ch": 837, " and multip": 838, " and multiply ": 839, "av": 840, "rable ": 841, "ly outcom": 842, "ourable ": 843, "equally ": 844, "likely outcom": 845, "avourable ": 846, "equally likely outcom": 847, "equally likely outcomes": 848, "-sid": 849, "ce": 850, "x-sid": 851, "ed di": 852, "six-sid": 853, "ing ex": 854, "rolled on": 855, "rolling ex": 856, "A fair six-sid": 857, ".  What is the probability of rolling ex": 858, "e is rolled on": 859, "ce.  What is the probability of rolling ex": 860, "ed die is rolled on": 861, "A fair six-sided die is rolled on": 862, "ce.  What is the probability of rolling exactly ": 863, "A fair six-sided die is rolled once.  What is the probability of rolling exactly ": 864, "st ": 865, ", perimeter": 866, "A re": 867, " or x = 3": 868, "ctangle has ": 869, "Find its area and perimeter": 870, "A rectangle has ": 871, "A rectangle has width ": 872, ")*": 873, "dar": 874, "se ": 875, "base ": 876, "A tri": 877, "angle has base ": 878, "A triangle has base ": 879, "3x - ": 880, "4x + ": 881, ") = 1.  ": 882, " h": 883, " ti": 884, "ds in ": 885, "fli": 886, "mes": 887, "eads in ": 888, "coin is ": 889, "row": 890, "a row": 891, "A fair coin is ": 892, "pped ": 893, " heads in ": 894, " times": 895, "flipped ": 896, "A fair coin is flipped ": 897, " heads in a row": 898, " times.  What is the probability of ": 899, "divisi": 900, "Solve cos": 901, "x = 60Â° or x = 3": 902, "Solve cos(x) = 1/2 for x in [0Â°, 360Â°]": 903, "x = 60Â° or x = 300Â°": 904, "/ ": 905, "sin(x) = 1/2 for x in [0Â°, 360Â°]": 906, "Solve sin(x) = 1/2 for x in [0Â°, 360Â°]": 907, " or x = 150Â°": 908, "x = 30Â° or x = 150Â°": 909, "ed by ": 910, "1x)": 911, "2)": 912, "30Â°": 913, "-4": 914, "2x + ": 915, " mod ": 916, "x^2 dx.  ": 917, "* ": 918, "-3": 919, "mon": 920, " s": 921, "Al": 922, "ab": 923, "bra": 924, "ebra": 925, "gebra": 926, "le": 927, "px + ": 928, "x^2 + px + ": 929, "Algebra": 930, "x^2 + px + q": 931, "ali": 932, "du": 933, "produ": 934, "cts.  ": 935, "products.  ": 936, "Ari": 937, "git ": 938, "kx)": 939, "tion, ": 940, "of f": 941, "digit ": 942, "raction ": 943, "f'(x)": 944, "Arithmetic": 945, "5x + ": 946, "(b": 947, "Po": 948, "onst": 949, "x^n": 950, "x^(n": 951, ".  ## Rules Po": 952, "fferentiation": 953, ".  ## Rules Power ": 954, ": -": 955, ") = â": 956, " = 4": 957, "+1)": 958, "anti": 959, " f(x)": 960, " for ": 961, "tegra": 962, " dx.  Solution: ": 963, "Integra": 964, " f(x) dx": 965, "3x)": 966, "2.  Answer: ": 967, "5x - ": 968, ").  2.  ": 969, "x^4": 970, "11": 971, "ally ": 972, "ithmetic": 973, "arithmetic": 974, "dy of ": 975, "study of ": 976, "when ": 977, " w": 978, "al ": 979, "ith ": 980, "res the ": 981, "vari": 982, " = 0 w": 983, "tan(": 984, " = 0 with ": 985, "gra": 986, "ph": 987, "graph": 988, "no ": 989, "f(x)": 990, "and sub": 991, "ag": 992, "tang": 993, ").  3.  ": 994, "2x)": 995, ").  4.  ": 996, "an 1": 997, " at x = ": 998, " than 1": 999, "Find gcd(": 1000, "Find lcm(": 1001, ").  6.  ": 1002, ").  5.  ": 1003, "3x + ": 1004, " exist?": 1005, "28": 1006, "Area": 1007, "Ge": 1008, "Number": 1009, "eor": 1010, "pe": 1011, "sha": 1012, "es and ": 1013, "angle area = ": 1014, " measurem": 1015, "Geometr": 1016, "30": 1017, "ents ": 1018, "x^1": 1019, "5)": 1020, "Pro": 1021, "mo": 1022, "sing": 1023, "P(A": 1024, "Probabilit": 1025, "as ": 1026, "effi": 1027, "cient ": 1028, "coeffi": 1029, ".  Com": 1030, "coefficient ": 1031, "side ": 1032, "For ": 1033, "Su": 1034, "btract ": 1035, "ly": 1036, "x f": 1037, "ear ": 1038, "es: (": 1039, "a â ": 1040, "rom both ": 1041, "sides: (": 1042, "to f": 1043, "Then (": 1044, "Subtract ": 1045, "x from both ": 1046, "a â  ": 1047, "x from both sides: (": 1048, "-- Practice ": 1049, "o f": 1050, "s -- Practice ": 1051, "one ": 1052, ", then": 1053, " a ": 1054, "Is ": 1055, "ght ": 1056, "prime number": 1057, " a prime number": 1058, "4x)": 1059, "Di": 1060, "stit": 1061, "tw": 1062, "inpu": 1063, " f(g": 1064, " fir": 1065, "tion f(g": 1066, "o numbers that ": 1067, "position f(g": 1068, "stitu": 1069, "two numbers that ": 1070, "position f(g(x)": 1071, "two numbers that add ": 1072, "(Î": 1073, "gon": 1074, "(x) is ": 1075, "angles ": 1076, "^2(Î": 1077, "Trigon": 1078, " heads in a row?": 1079, "(x) is positive in quadrants I and I": 1080, "^2(Î¸": 1081, "Trigonometr": 1082, "x; ": 1083, " = 6": 1084, "8)": 1085, " and multiply to ": 1086, " or x = -": 1087, "cha": 1088, "the cha": 1089, "in rule": 1090, "the chain rule": 1091, "3/2": 1092, "6.  Answer: ": 1093, "0?": 1094, "/5": 1095, "6)": 1096, "ots ": 1097, "roots ": 1098, " and give the answer in lowest terms.  ": 1099, "3/3": 1100, "7)": 1101, "24": 1102, "25": 1103, "45Â°": 1104, "19": 1105, " at x = -": 1106, "/100": 1107, "at": 1108, "bin": 1109, " = 8": 1110, " and height 1": 1111, "3.  Answer: ": 1112, "1x + ": 1113, "are ": 1114, "perimeter = 2*": 1115, "; perimeter = 2*": 1116, "; perimeter = 2*(": 1117, "Factor x^2 + ": 1118, "-se": 1119, "-subsets of ": 1120, "k-subsets of ": 1121, "n-se": 1122, " of k-subsets of ": 1123, "The number": 1124, "an n-se": 1125, " of k-subsets of an n-se": 1126, "The number of k-subsets of an n-se": 1127, "The number of k-subsets of an n-set ": 1128, " = 7": 1129, "avourable outcom": 1130, "4*": 1131, "## Answer Key 1.  ": 1132, "1/2)*": 1133, "d exact valu": 1134, "dard exact valu": 1135, "  ## Answer Key 1.  ": 1136, "ves ": 1137, "2Ïr": 1138, "circumference = 2Ïr": 1139, "Ïr^2": 1140, "Solve x^2 + ": 1141, "2/2": 1142, ", compute f(g(-": 1143, " = 9": 1144, "36": 1145, "17": 1146, "two numbers that add to ": 1147, "1, ": 1148, " = 5": 1149, "gest ": 1150, "lar": 1151, "is the lar": 1152, "ing both ": 1153, " dividing both ": 1154, "integer dividing both ": 1155, "gest integer dividing both ": 1156, "is the largest integer dividing both ": 1157, "Find the derivative of f(x) = 4": 1158, "By ": 1159, "4.  Answer: ": 1160, "to -": 1161, "4 2.  ": 1162, "x^(": 1163, " a prime number?": 1164, "1/3": 1165, "^3/3": 1166, " + 1)": 1167, "ain": 1168, "der": 1169, " divided by ": 1170, "remain": 1171, "remainder": 1172, "Ther": 1173, "1) = ": 1174, "5*": 1175, "3*": 1176, "Answer: -": 1177, "80": 1178, "Find the derivative of f(x) = 5": 1179, "Find the derivative of f(x) = 3": 1180, "Factor x^2 - ": 1181, "27": 1182, "/4": 1183, "x^2 + C": 1184, "2*": 1185, ".  Solution: Area": 1186, ").  ## Answer Key 1.  ": 1187, " distinct items, how many subsets of size 1": 1188, " * ": 1189, "common": 1190, " = 1/": 1191, "Solve x^2 - ": 1192, " distinct items, how many subsets of size 2": 1193, "Find the derivative of f(x) = 2": 1194, "8 2.  ": 1195, "50": 1196, "*cos(1x)": 1197, "/(": 1198, "/1": 1199, "26": 1200, "4/3": 1201, "2/3": 1202, ", so P": 1203, "cos(45Â°": 1204, ", so x = -": 1205, "x^2 dx = ": 1206, "(x) = 1/2 in [0Â°, 360Â°]": 1207, "tan(60Â°": 1208, "(x) = 1/2 in [0Â°, 360Â°].  ": 1209, "29": 1210, "1 2.  ": 1211, "1*": 1212, "2 2.  ": 1213, "sin(30Â°": 1214, "1 to ": 1215, "Solution: Subtract ": 1216, "/7": 1217, ", so x = ": 1218, ").  Solution: The ": 1219, "% of 100": 1220, "/6": 1221, "Ï*": 1222, "f'(x) = -": 1223, " + C 2.  ": 1224, " and give the answer in lowest terms": 1225, "8.  ": 1226, "*cos(3x)": 1227, " a": 1228, " le": 1229, " x^2 + px + q": 1230, "*r2": 1231, "To f": 1232, "ati": 1233, "ay ": 1234, "bu": 1235, "be ": 1236, "bol": 1237, "c) = ": 1238, "cally ": 1239, "find ": 1240, "ically ": 1241, "kn": 1242, "let": 1243, "may ": 1244, "mbol": 1245, "n or ": 1246, "pr": 1247, "p and ": 1248, "p and multiply to ": 1249, "pically ": 1250, "q.  ": 1251, "q.  ## Worked Examples 1.  ": 1252, "sfi": 1253, "ty": 1254, "using": 1255, "w a": 1256, "you": 1257, "ymbol": 1258, "zes ": 1259, " = q.  ## Worked Examples 1.  ": 1260, "erali": 1261, " + ac": 1262, " + r2": 1263, " + c) = ": 1264, ", find ": 1265, "ratic": 1266, "es r1": 1267, "enerali": 1268, " and r2": 1269, "ters, ": 1270, "esent ": 1271, "tive la": 1272, "dist": 1273, "ribu": 1274, "ts you": 1275, "to re": 1276, "A quad": 1277, ".  ## Rules The ": 1278, "  ## Definition Algebra": 1279, "own or ": 1280, " = -p and ": 1281, " expand ": 1282, "s, ty": 1283, "actor x^2 + px + q": 1284, "unkn": 1285, " by using": 1286, "r1*r2": 1287, "r1 and r2": 1288, " generali": 1289, "numbers that may ": 1290, " sati": 1291, " symbol": 1292, "able": 1293, "ab + ac": 1294, "Algebra -- Practice ": 1295, "products.  To f": 1296, "(b + c) = ": 1297, "arithmetic by using": 1298, "variable": 1299, " = 0 with roots ": 1300, "two numbers that add to p and multiply to ": 1301, " lets you": 1302, " x^2 + px + q = 0 with roots ": 1303, "be unkn": 1304, "letters, ": 1305, "present ": 1306, "pically letters, ": 1307, "q.  A quad": 1308, "sfies r1": 1309, "w a(b + c) = ": 1310, "zes arithmetic by using": 1311, " + r2 = -p and ": 1312, ", find two numbers that add to p and multiply to ": 1313, "ratic x^2 + px + q = 0 with roots ": 1314, "tive law a(b + c) = ": 1315, "distribu": 1316, "to represent ": 1317, ".  ## Rules The distribu": 1318, "  ## Definition Algebra generali": 1319, "own or variable": 1320, " expand products.  To f": 1321, "s, typically letters, ": 1322, "actor x^2 + px + q, find two numbers that add to p and multiply to ": 1323, "r1*r2 = q.  ## Worked Examples 1.  ": 1324, "r1 and r2 sati": 1325, "numbers that may be unkn": 1326, " symbols, typically letters, ": 1327, "ab + ac lets you": 1328, "q.  A quadratic x^2 + px + q = 0 with roots ": 1329, "sfies r1 + r2 = -p and ": 1330, "zes arithmetic by using symbols, typically letters, ": 1331, "tive law a(b + c) = ab + ac lets you": 1332, "to represent numbers that may be unkn": 1333, ".  ## Rules The distributive law a(b + c) = ab + ac lets you": 1334, "  ## Definition Algebra generalizes arithmetic by using symbols, typically letters, ": 1335, "own or variable.  ## Rules The distributive law a(b + c) = ab + ac lets you": 1336, " expand products.  To factor x^2 + px + q, find two numbers that add to p and multiply to ": 1337, "r1 and r2 satisfies r1 + r2 = -p and ": 1338, "q.  A quadratic x^2 + px + q = 0 with roots r1 and r2 satisfies r1 + r2 = -p and ": 1339, "to represent numbers that may be unknown or variable.  ## Rules The distributive law a(b + c) = ab + ac lets you": 1340, "  ## Definition Algebra generalizes arithmetic by using symbols, typically letters, to represent numbers that may be unknown or variable.  ## Rules The distributive law a(b + c) = ab + ac lets you": 1341, " expand products.  To factor x^2 + px + q, find two numbers that add to p and multiply to q.  A quadratic x^2 + px + q = 0 with roots r1 and r2 satisfies r1 + r2 = -p and ": 1342, "  ## Definition Algebra generalizes arithmetic by using symbols, typically letters, to represent numbers that may be unknown or variable.  ## Rules The distributive law a(b + c) = ab + ac lets you expand products.  To factor x^2 + px + q, find two numbers that add to p and multiply to q.  A quadratic x^2 + px + q = 0 with roots r1 and r2 satisfies r1 + r2 = -p and ": 1343, "  ## Definition Algebra generalizes arithmetic by using symbols, typically letters, to represent numbers that may be unknown or variable.  ## Rules The distributive law a(b + c) = ab + ac lets you expand products.  To factor x^2 + px + q, find two numbers that add to p and multiply to q.  A quadratic x^2 + px + q = 0 with roots r1 and r2 satisfies r1 + r2 = -p and r1*r2 = q.  ## Worked Examples 1.  ": 1344, "-5": 1345, " dx = -": 1346, "â« -": 1347, ".# Algebra -- Practice ": 1348, " o": 1349, " p": 1350, " of f": 1351, "% is the ": 1352, "*x^(n": 1353, "/b": 1354, "Ad": 1355, "Const": 1356, "Multip": 1357, "a/b": 1358, "cation": 1359, "cent": 1360, "c o": 1361, "for": 1362, "factor ": 1363, "fraction ": 1364, "gn": 1365, "k*cos(": 1366, "lo": 1367, "med on": 1368, "n*x^(n": 1369, "par": 1370, "pe of ": 1371, "p/100": 1372, "p% is the ": 1373, "slo": 1374, ".  Multip": 1375, "e to ": 1376, "e of f": 1377, "e p% is the ": 1378, "s per": 1379, "d and sub": 1380, "tial ": 1381, "on.  ## Rules ": 1382, ": ad": 1383, "the ba": 1384, "the graph": 1385, "the tang": 1386, "and add ": 1387, "and the ba": 1388, "rate ": 1389, "of sin(": 1390, "of ch": 1391, " and divisi": 1392, "in lowest ": 1393, "sic o": 1394, "ce valu": 1395, ").  Const": 1396, "es.  Multip": 1397, "dition, ": 1398, "ly digit ": 1399, "is the slo": 1400, "derivative f'(x)": 1401, "derivative of sin(": 1402, "ange of f": 1403, "A per": 1404, "lication": 1405, "  ## Definition The ": 1406, "  ## Definition Arithmetic": 1407, ".# Arithmetic": 1408, ".# Di": 1409, "subtrac": 1410, "ing p": 1411, " is k*cos(": 1412, " is in lowest ": 1413, "A fraction ": 1414, "out: d/dx[": 1415, "ent lin": 1416, "by ali": 1417, "by digit ": 1418, " by the chain rule": 1419, " at x; ": 1420, "it is the slo": 1421, "multiplication": 1422, "terms when ": 1423, "ations per": 1424, "perations per": 1425, "ants factor ": 1426, "numbers and the ba": 1427, " them": 1428, "-1).  Const": 1429, "rule: d/dx[": 1430, "] = a*": 1431, "] = n*x^(n": 1432, " is the study of ": 1433, "a*f(x)": 1434, "lace valu": 1435, ".  The derivative of sin(": 1436, " measures the ": 1437, "gcd(a, b) = 1.  ": 1438, "tract by ali": 1439, "products.  A fraction ": 1440, "kx) is k*cos(": 1441, "kx) by the chain rule": 1442, "tion, multiplication": 1443, "f'(x).  The derivative of sin(": 1444, "x^n] = n*x^(n": 1445, "fferentiation -- Practice ": 1446, ".  ## Rules Power rule: d/dx[": 1447, "age p% is the ": 1448, " of f.  ## Rules Power rule: d/dx[": 1449, "Add and sub": 1450, "a/b is in lowest ": 1451, "centage p% is the ": 1452, "formed on": 1453, "fraction p/100": 1454, "gning p": 1455, "partial ": 1456, "pe of the tang": 1457, "e to the graph": 1458, "on.  ## Rules Add and sub": 1459, ": addition, ": 1460, "and add partial ": 1461, "rate of ch": 1462, " and division.  ## Rules Add and sub": 1463, "sic operations per": 1464, "es.  Multiply digit ": 1465, "derivative f'(x) measures the ": 1466, "ange of f at x; ": 1467, "A percentage p% is the ": 1468, "  ## Definition The derivative f'(x) measures the ": 1469, "  ## Definition Arithmetic is the study of ": 1470, ".# Arithmetic -- Practice ": 1471, ".# Differentiation -- Practice ": 1472, "subtraction, multiplication": 1473, "out: d/dx[a*f(x)": 1474, "ent line to the graph": 1475, "by digit and add partial ": 1476, "it is the slope of the tang": 1477, "terms when gcd(a, b) = 1.  ": 1478, "ants factor out: d/dx[a*f(x)": 1479, "numbers and the basic operations per": 1480, " them: addition, ": 1481, "-1).  Constants factor out: d/dx[a*f(x)": 1482, "] = a*f'(x).  The derivative of sin(": 1483, "lace values.  Multiply digit ": 1484, "tract by aligning p": 1485, "products.  A fraction a/b is in lowest ": 1486, "kx) is k*cos(kx) by the chain rule": 1487, "x^n] = n*x^(n-1).  Constants factor out: d/dx[a*f(x)": 1488, " of f.  ## Rules Power rule: d/dx[x^n] = n*x^(n-1).  Constants factor out: d/dx[a*f(x)": 1489, "formed on them: addition, ": 1490, "fraction p/100.  ## Worked Examples 1.  ": 1491, "rate of change of f at x; ": 1492, " and division.  ## Rules Add and subtract by aligning p": 1493, "A percentage p% is the fraction p/100.  ## Worked Examples 1.  ": 1494, "  ## Definition The derivative f'(x) measures the rate of change of f at x; ": 1495, "  ## Definition Arithmetic is the study of numbers and the basic operations per": 1496, "subtraction, multiplication and division.  ## Rules Add and subtract by aligning p": 1497, "ent line to the graph of f.  ## Rules Power rule: d/dx[x^n] = n*x^(n-1).  Constants factor out: d/dx[a*f(x)": 1498, "by digit and add partial products.  A fraction a/b is in lowest ": 1499, "it is the slope of the tangent line to the graph of f.  ## Rules Power rule: d/dx[x^n] = n*x^(n-1).  Constants factor out: d/dx[a*f(x)": 1500, "terms when gcd(a, b) = 1.  A percentage p% is the fraction p/100.  ## Worked Examples 1.  ": 1501, "] = a*f'(x).  The derivative of sin(kx) is k*cos(kx) by the chain rule": 1502, "lace values.  Multiply digit by digit and add partial products.  A fraction a/b is in lowest ": 1503, "formed on them: addition, subtraction, multiplication and division.  ## Rules Add and subtract by aligning p": 1504, "  ## Definition The derivative f'(x) measures the rate of change of f at x; it is the slope of the tangent line to the graph of f.  ## Rules Power rule: d/dx[x^n] = n*x^(n-1).  Constants factor out: d/dx[a*f(x)": 1505, "  ## Definition Arithmetic is the study of numbers and the basic operations performed on them: addition, subtraction, multiplication and division.  ## Rules Add and subtract by aligning p": 1506, "] = a*f'(x).  The derivative of sin(kx) is k*cos(kx) by the chain rule.  ## Worked Examples 1.  ": 1507, "lace values.  Multiply digit by digit and add partial products.  A fraction a/b is in lowest terms when gcd(a, b) = 1.  A percentage p% is the fraction p/100.  ## Worked Examples 1.  ": 1508, "  ## Definition The derivative f'(x) measures the rate of change of f at x; it is the slope of the tangent line to the graph of f.  ## Rules Power rule: d/dx[x^n] = n*x^(n-1).  Constants factor out: d/dx[a*f(x)] = a*f'(x).  The derivative of sin(kx) is k*cos(kx) by the chain rule.  ## Worked Examples 1.  ": 1509, "  ## Definition Arithmetic is the study of numbers and the basic operations performed on them: addition, subtraction, multiplication and division.  ## Rules Add and subtract by aligning place values.  Multiply digit by digit and add partial products.  A fraction a/b is in lowest terms when gcd(a, b) = 1.  A percentage p% is the fraction p/100.  ## Worked Examples 1.  ": 1510, "2x^2 + ": 1511, "] = -": 1512, "/9": 1513, " equa": 1514, " â ": 1515, "(a": 1516, ") - ": 1517, ") for ": 1518, "/(n": 1519, "A d": 1520, "C.  ## Rules Power ": 1521, "F.  ## Worked Examples 1.  ": 1522, "F(b": 1523, "F(a": 1524, "a f": 1525, "b f(x) dx": 1526, "const": 1527, "for ": 1528, "ffer": 1529, "ily ": 1530, "ls ": 1531, "n â ": 1532, "ru": 1533, "se of ": 1534, "ver": 1535, "inver": 1536, "tives ": 1537, "ant ": 1538, " -1.  ": 1539, "tion -- Practice ": 1540, "of anti": 1541, "tion: â« ": 1542, "differentiation": 1543, "differ": 1544, "le for ": 1545, "tion is the ": 1546, "a to ": 1547, "a const": 1548, "derivatives ": 1549, "derivative F.  ## Worked Examples 1.  ": 1550, "integration: â« ": 1551, "amily ": 1552, " dx.  ## Answer Key 1.  ": 1553, "efinite integral â« from ": 1554, "  ## Definition Integra": 1555, ".# Integra": 1556, "ing by ": 1557, " is a f": 1558, " + C for ": 1559, "indefinite integral â« f(x) dx": 1560, "any anti": 1561, " dx = x^(n": 1562, ".  The indefinite integral â« f(x) dx": 1563, "x^n dx = x^(n": 1564, "+1)/(n": 1565, "+1) + C for ": 1566, " equals ": 1567, ") - F(a": 1568, ") for any anti": 1569, "A definite integral â« from ": 1570, "C.  ## Rules Power ru": 1571, "F(b) - F(a": 1572, "b f(x) dx equals ": 1573, "n â  -1.  ": 1574, "se of differentiation": 1575, "inverse of differentiation": 1576, "ant C.  ## Rules Power ru": 1577, "of antiderivatives ": 1578, "differing by ": 1579, "le for integration: â« ": 1580, "tion is the inverse of differentiation": 1581, "a to b f(x) dx equals ": 1582, "a constant C.  ## Rules Power ru": 1583, "amily of antiderivatives ": 1584, "  ## Definition Integration is the inverse of differentiation": 1585, ".# Integration -- Practice ": 1586, " is a family of antiderivatives ": 1587, ".  The indefinite integral â« f(x) dx is a family of antiderivatives ": 1588, "x^n dx = x^(n+1)/(n": 1589, "+1) + C for n â  -1.  ": 1590, ") for any antiderivative F.  ## Worked Examples 1.  ": 1591, "A definite integral â« from a to b f(x) dx equals ": 1592, "F(b) - F(a) for any antiderivative F.  ## Worked Examples 1.  ": 1593, "differing by a constant C.  ## Rules Power ru": 1594, "le for integration: â« x^n dx = x^(n+1)/(n": 1595, "  ## Definition Integration is the inverse of differentiation.  The indefinite integral â« f(x) dx is a family of antiderivatives ": 1596, "+1) + C for n â  -1.  A definite integral â« from a to b f(x) dx equals ": 1597, "differing by a constant C.  ## Rules Power rule for integration: â« x^n dx = x^(n+1)/(n": 1598, "  ## Definition Integration is the inverse of differentiation.  The indefinite integral â« f(x) dx is a family of antiderivatives differing by a constant C.  ## Rules Power rule for integration: â« x^n dx = x^(n+1)/(n": 1599, "+1) + C for n â  -1.  A definite integral â« from a to b f(x) dx equals F(b) - F(a) for any antiderivative F.  ## Worked Examples 1.  ": 1600, "  ## Definition Integration is the inverse of differentiation.  The indefinite integral â« f(x) dx is a family of antiderivatives differing by a constant C.  ## Rules Power rule for integration: â« x^n dx = x^(n+1)/(n+1) + C for n â  -1.  A definite integral â« from a to b f(x) dx equals F(b) - F(a) for any antiderivative F.  ## Worked Examples 1.  ": 1601, "Find the derivative of f(x) = 1": 1602, "*cos(2x)": 1603, "f'(x) = 12": 1604, " dx.  Solution: â« ": 1605, "/8": 1606, "2 - ": 1607, "*sin(1x)": 1608, "x^4.  ": 1609, "49": 1610, "lf": 1611, "5.  Answer: ": 1612, "itse": 1613, "ter than 1": 1614, "reater than 1": 1615, "itself": 1616, "1.  Answer: ": 1617, "6x - ": 1618, "2x^2 - ": 1619, " of 3": 1620, ")x = ": 1621, " / ": 1622, "0 and ": 1623, "2 to ": 1624, " distinct items, how many subsets of size 2 exist?": 1625, "3x^2 + ": 1626, "8.  Answer: ": 1627, "tan(60Â°) = â": 1628, "3 - ": 1629, "cos(45Â°) = â": 1630, "8x + ": 1631, "*cos(4x)": 1632, "sin(30Â°) = ": 1633, "6 2.  ": 1634, "x^3.  ": 1635, "Compute 7": 1636, "60": 1637, "64": 1638, " - -": 1639, " Th": 1640, " integer": 1641, " arithmetic": 1642, "(1/2)*": 1643, ") and ": 1644, ").  ## Rules ": 1645, "*height": 1646, "6x + ": 1647, "Re": 1648, "a and ": 1649, "ace ": 1650, "a divided by ": 1651, "bou": 1652, "b; ": 1653, "b / ": 1654, "dul": 1655, "gth": 1656, "irc": 1657, "len": 1658, "m.  ## Worked Examples 1.  ": 1659, "mod ": 1660, "m is the ": 1661, "ndar": 1662, "oth": 1663, "pes": 1664, "pace ": 1665, "r measurem": 1666, "sor": 1667, "space ": 1668, "y, ": 1669, ".  a ": 1670, "s oth": 1671, "inside ": 1672, "er than 1": 1673, "ties and ": 1674, "th + ": 1675, "thei": 1676, "y is the ": 1677, "y stu": 1678, "y len": 1679, "the integer": 1680, "the space ": 1681, "es sha": 1682, " and circumference = 2Ïr": 1683, " and itself": 1684, "An integer": 1685, "ar arithmetic": 1686, "cially ": 1687, ").  Tri": 1688, ").  An integer": 1689, "espe": 1690, "dies sha": 1691, "area (": 1692, ") = a*": 1693, "a sha": 1694, "base": 1695, " or circumference (": 1696, ".  ## Rules gcd(a, b": 1697, "  ## Definition Number": 1698, "  ## Definition Geometr": 1699, ".# Number": 1700, ".# Geometr": 1701, "eir ": 1702, " of a divided by ": 1703, "proper": 1704, "its bou": 1705, "has no ": 1706, "bility, ": 1707, " is prime ": 1708, "perimeter or circumference (": 1709, "s, espe": 1710, ") is the largest integer dividing both ": 1711, "ctangle area = ": 1712, "it has no ": 1713, "width + ": 1714, " theor": 1715, "positive divi": 1716, "a, b) = a*": 1717, "ent.  Com": 1718, "primes and ": 1719, "width * ": 1720, "lcm(a, b) = a*": 1721, "gcd(a, b).  An integer": 1722, " greater than 1": 1723, "le area = Ïr^2": 1724, "height; perimeter = 2*(": 1725, "height).  Tri": 1726, ".  Circ": 1727, ", their ": 1728, "divisibility, ": 1729, "mon measurem": 1730, "study of the integer": 1731, "when it has no ": 1732, "eory -- Practice ": 1733, "pe) and ": 1734, "angle area = (1/2)*": 1735, "ents are ": 1736, "modul": 1737, "remainder of a divided by ": 1738, " Theory -- Practice ": 1739, ").  ## Rules Re": 1740, "*height.  Circ": 1741, "a and b; ": 1742, "b / gcd(a, b).  An integer": 1743, "gth).  ## Rules Re": 1744, "mod m is the ": 1745, "ndary len": 1746, "pes, their ": 1747, "r measurement.  Com": 1748, "sors oth": 1749, ".  a mod m is the ": 1750, "inside a sha": 1751, "er than 1 and itself": 1752, "ties and thei": 1753, "y is the study of the integer": 1754, "y studies sha": 1755, "the space inside a sha": 1756, " and circumference = 2Ïr.  ## Worked Examples 1.  ": 1757, "ar arithmetic.  ## Rules gcd(a, b": 1758, "cially divisibility, ": 1759, "area (the space inside a sha": 1760, "base*height.  Circ": 1761, "  ## Definition Number theor": 1762, "  ## Definition Geometry studies sha": 1763, ".# Number Theory -- Practice ": 1764, ".# Geometry -- Practice ": 1765, "properties and thei": 1766, "its boundary len": 1767, " is prime when it has no ": 1768, "perimeter or circumference (its boundary len": 1769, "s, especially divisibility, ": 1770, ") is the largest integer dividing both a and b; ": 1771, "ctangle area = width * ": 1772, "width + height).  Tri": 1773, "positive divisors oth": 1774, "primes and modul": 1775, "lcm(a, b) = a*b / gcd(a, b).  An integer": 1776, " greater than 1 is prime when it has no ": 1777, "le area = Ïr^2 and circumference = 2Ïr.  ## Worked Examples 1.  ": 1778, "height; perimeter = 2*(width + height).  Tri": 1779, "mon measurements are ": 1780, "pe) and perimeter or circumference (its boundary len": 1781, "angle area = (1/2)*base*height.  Circ": 1782, "remainder of a divided by m.  ## Worked Examples 1.  ": 1783, "gth).  ## Rules Rectangle area = width * ": 1784, "pes, their properties and thei": 1785, "r measurement.  Common measurements are ": 1786, ".  a mod m is the remainder of a divided by m.  ## Worked Examples 1.  ": 1787, "er than 1 and itself.  a mod m is the remainder of a divided by m.  ## Worked Examples 1.  ": 1788, "y is the study of the integers, especially divisibility, ": 1789, "ar arithmetic.  ## Rules gcd(a, b) is the largest integer dividing both a and b; ": 1790, "area (the space inside a shape) and perimeter or circumference (its boundary len": 1791, "  ## Definition Number theory is the study of the integers, especially divisibility, ": 1792, "  ## Definition Geometry studies shapes, their properties and thei": 1793, "positive divisors other than 1 and itself.  a mod m is the remainder of a divided by m.  ## Worked Examples 1.  ": 1794, "primes and modular arithmetic.  ## Rules gcd(a, b) is the largest integer dividing both a and b; ": 1795, "lcm(a, b) = a*b / gcd(a, b).  An integer greater than 1 is prime when it has no ": 1796, "height; perimeter = 2*(width + height).  Triangle area = (1/2)*base*height.  Circ": 1797, "gth).  ## Rules Rectangle area = width * height; perimeter = 2*(width + height).  Triangle area = (1/2)*base*height.  Circ": 1798, "r measurement.  Common measurements are area (the space inside a shape) and perimeter or circumference (its boundary len": 1799, "  ## Definition Number theory is the study of the integers, especially divisibility, primes and modular arithmetic.  ## Rules gcd(a, b) is the largest integer dividing both a and b; ": 1800, "  ## Definition Geometry studies shapes, their properties and their measurement.  Common measurements are area (the space inside a shape) and perimeter or circumference (its boundary len": 1801, "lcm(a, b) = a*b / gcd(a, b).  An integer greater than 1 is prime when it has no positive divisors other than 1 and itself.  a mod m is the remainder of a divided by m.  ## Worked Examples 1.  ": 1802, "gth).  ## Rules Rectangle area = width * height; perimeter = 2*(width + height).  Triangle area = (1/2)*base*height.  Circle area = Ïr^2 and circumference = 2Ïr.  ## Worked Examples 1.  ": 1803, "  ## Definition Number theory is the study of the integers, especially divisibility, primes and modular arithmetic.  ## Rules gcd(a, b) is the largest integer dividing both a and b; lcm(a, b) = a*b / gcd(a, b).  An integer greater than 1 is prime when it has no positive divisors other than 1 and itself.  a mod m is the remainder of a divided by m.  ## Worked Examples 1.  ": 1804, "  ## Definition Geometry studies shapes, their properties and their measurement.  Common measurements are area (the space inside a shape) and perimeter or circumference (its boundary length).  ## Rules Rectangle area = width * height; perimeter = 2*(width + height).  Triangle area = (1/2)*base*height.  Circle area = Ïr^2 and circumference = 2Ïr.  ## Worked Examples 1.  ": 1805, ").  ## Worked Examples 1.  ": 1806, "B).  ": 1807, "B) = ": 1808, "C(n": 1809, "al": 1810, "de": 1811, "dent ": 1812, "een ": 1813, "f(": 1814, "favourable ": 1815, "ho": 1816, "ial ": 1817, "k).  ## Worked Examples 1.  ": 1818, "measu": 1819, "pen": 1820, "tal": 1821, "ween ": 1822, ".  In": 1823, ": P(A": 1824, "y measu": 1825, ", P(": 1826, ", k).  ## Worked Examples 1.  ": 1827, "es div": 1828, "omial ": 1829, "of an ": 1830, " and B) = ": 1831, ") = favourable ": 1832, "a number": 1833, "l to f": 1834, "is the bin": 1835, " bet": 1836, "ided by ": 1837, "liho": 1838, ".  ## Rules For ": 1839, "  ## Definition Probabilit": 1840, ".# Probabilit": 1841, "equal to f": 1842, "ent as ": 1843, "multiply": 1844, "total": 1845, "od of an ": 1846, "ent) = favourable ": 1847, "P(B).  ": 1848, "likeliho": 1849, "events ": 1850, "event as ": 1851, "event) = favourable ": 1852, "equally likely outcomes, P(": 1853, "equally likely outcomes.  ## Rules For ": 1854, ")*P(B).  ": 1855, "/ total": 1856, "res the likeliho": 1857, "P(A)*P(B).  ": 1858, "coefficient C(n": 1859, "The number of k-subsets of an n-set is the bin": 1860, "avourable outcomes div": 1861, "1, equal to f": 1862, "0 and 1, equal to f": 1863, "depen": 1864, "dent events ": 1865, "ween 0 and 1, equal to f": 1866, ".  Indepen": 1867, ": P(A and B) = ": 1868, "y measures the likeliho": 1869, "omial coefficient C(n": 1870, "a number bet": 1871, "ided by equally likely outcomes.  ## Rules For ": 1872, "  ## Definition Probability measures the likeliho": 1873, ".# Probability -- Practice ": 1874, "multiply: P(A and B) = ": 1875, "od of an event as ": 1876, "event) = favourable / total": 1877, "equally likely outcomes, P(event) = favourable / total": 1878, "P(A)*P(B).  The number of k-subsets of an n-set is the bin": 1879, "avourable outcomes divided by equally likely outcomes.  ## Rules For ": 1880, "dent events multiply: P(A and B) = ": 1881, "ween 0 and 1, equal to favourable outcomes divided by equally likely outcomes.  ## Rules For ": 1882, ".  Independent events multiply: P(A and B) = ": 1883, "omial coefficient C(n, k).  ## Worked Examples 1.  ": 1884, "a number between 0 and 1, equal to favourable outcomes divided by equally likely outcomes.  ## Rules For ": 1885, "  ## Definition Probability measures the likelihood of an event as ": 1886, "equally likely outcomes, P(event) = favourable / total.  Independent events multiply: P(A and B) = ": 1887, "P(A)*P(B).  The number of k-subsets of an n-set is the binomial coefficient C(n, k).  ## Worked Examples 1.  ": 1888, "a number between 0 and 1, equal to favourable outcomes divided by equally likely outcomes.  ## Rules For equally likely outcomes, P(event) = favourable / total.  Independent events multiply: P(A and B) = ": 1889, "  ## Definition Probability measures the likelihood of an event as a number between 0 and 1, equal to favourable outcomes divided by equally likely outcomes.  ## Rules For equally likely outcomes, P(event) = favourable / total.  Independent events multiply: P(A and B) = ": 1890, "  ## Definition Probability measures the likelihood of an event as a number between 0 and 1, equal to favourable outcomes divided by equally likely outcomes.  ## Rules For equally likely outcomes, P(event) = favourable / total.  Independent events multiply: P(A and B) = P(A)*P(B).  The number of k-subsets of an n-set is the binomial coefficient C(n, k).  ## Worked Examples 1.  ": 1891, "*sin(3x)": 1892, "- b": 1893, "0; ": 1894, "Equa": 1895, "Lin": 1896, "To ": 1897, "a - ": 1898, "able ": 1899, "can": 1900, "cx + ": 1901, "c.  ## Worked Examples 1.  ": 1902, "c)x = ": 1903, "d, ": 1904, "e.  ## Rules ": 1905, "e: (": 1906, "ight ": 1907, "rit": 1908, "sol": 1909, "ten ": 1910, "vid": 1911, "writ": 1912, "x, ": 1913, "e by ": 1914, "e writ": 1915, " = cx + ": 1916, "d - b": 1917, "x^5": 1918, "y that ": 1919, "the coefficient ": 1920, "tions -- Practice ": 1921, "raight ": 1922, "ve ax + b": 1923, "of x, ": 1924, "is an ": 1925, "ed a â  ": 1926, "straight ": 1927, "tion is an ": 1928, "a straight ": 1929, "to one ": 1930, " be writ": 1931, "A lin": 1932, "  ## Definition A lin": 1933, "  ## Exercises 1.  Solve for x: ": 1934, ".# Lin": 1935, "provid": 1936, "its graph": 1937, "lity that ": 1938, " is a straight ": 1939, "side: (": 1940, "equation is an ": 1941, "equality that ": 1942, "terms to one ": 1943, "line.  ## Rules ": 1944, "ve the vari": 1945, " divide by ": 1946, "ax + b = 0 with ": 1947, "move the vari": 1948, "as ax + b = 0 with ": 1949, "ear Equa": 1950, "ear equation is an ": 1951, "a â  0; ": 1952, ", then divide by ": 1953, "To sol": 1954, "a - c)x = ": 1955, "able terms to one ": 1956, "can be writ": 1957, "c.  ## Worked Examples 1.  Solve for x: ": 1958, "d, move the vari": 1959, "ten as ax + b = 0 with ": 1960, " = cx + d, move the vari": 1961, "d - b, then divide by ": 1962, "the coefficient of x, ": 1963, "ve ax + b = cx + d, move the vari": 1964, "ed a â  c.  ## Worked Examples 1.  Solve for x: ": 1965, "  ## Definition A linear equation is an ": 1966, ".# Linear Equa": 1967, "provided a â  c.  ## Worked Examples 1.  Solve for x: ": 1968, "its graph is a straight ": 1969, "side: (a - c)x = ": 1970, "equality that can be writ": 1971, "line.  ## Rules To sol": 1972, "a â  0; its graph is a straight ": 1973, "able terms to one side: (a - c)x = ": 1974, "ten as ax + b = 0 with a â  0; its graph is a straight ": 1975, "d - b, then divide by the coefficient of x, ": 1976, "ve ax + b = cx + d, move the variable terms to one side: (a - c)x = ": 1977, "  ## Definition A linear equation is an equality that can be writ": 1978, ".# Linear Equations -- Practice ": 1979, "line.  ## Rules To solve ax + b = cx + d, move the variable terms to one side: (a - c)x = ": 1980, "ten as ax + b = 0 with a â  0; its graph is a straight line.  ## Rules To solve ax + b = cx + d, move the variable terms to one side: (a - c)x = ": 1981, "d - b, then divide by the coefficient of x, provided a â  c.  ## Worked Examples 1.  Solve for x: ": 1982, "  ## Definition A linear equation is an equality that can be written as ax + b = 0 with a â  0; its graph is a straight line.  ## Rules To solve ax + b = cx + d, move the variable terms to one side: (a - c)x = ": 1983, "  ## Definition A linear equation is an equality that can be written as ax + b = 0 with a â  0; its graph is a straight line.  ## Rules To solve ax + b = cx + d, move the variable terms to one side: (a - c)x = d - b, then divide by the coefficient of x, provided a â  c.  ## Worked Examples 1.  Solve for x: ": 1984, " inpu": 1985, "), compute ": 1986, "Function": 1987, "ap": 1988, "app": 1989, "g(x)": 1990, "r f": 1991, "t.  ": 1992, "ting": 1993, "x to ": 1994, "e in": 1995, "s ea": 1996, "s app": 1997, "ans app": 1998, "t f(x)": 1999, "t x to ": 2000, " f.  ## Rules ": 2001, " f m": 2002, "te that ": 2003, "ear f": 2004, "put f(x)": 2005, "st, then": 2006, "a com": 2007, "a lin": 2008, " f(x) = ax + b": 2009, "means app": 2010, "Evaluate a lin": 2011, "exactly ": 2012, "  ## Definition A f": 2013, ".# Function": 2014, "substitu": 2015, "ing g": 2016, "value in": 2017, "output f(x)": 2018, ") means app": 2019, " by substitu": 2020, "unction f m": 2021, "unction f(x) = ax + b": 2022, " the inpu": 2023, "ch inpu": 2024, "st and sub": 2025, ".  Composition f(g(x)": 2026, "For a com": 2027, "lying g": 2028, "to f.  ## Worked Examples 1.  ": 2029, "one output f(x)": 2030, " first, then": 2031, " first and sub": 2032, "stitute that ": 2033, "position f(g(x)), compute ": 2034, " distinct items, how many subsets of size 1 exist?": 2035, "aps ea": 2036, "g(x) first and sub": 2037, "t.  For a com": 2038, "ting the inpu": 2039, "t x to exactly ": 2040, " f.  ## Rules Evaluate a lin": 2041, "ear function f(x) = ax + b": 2042, "  ## Definition A function f m": 2043, ".# Functions -- Practice ": 2044, "value into f.  ## Worked Examples 1.  ": 2045, ") means applying g": 2046, " by substituting the inpu": 2047, "ch input x to exactly ": 2048, ".  Composition f(g(x)) means applying g": 2049, "one output f(x).  Composition f(g(x)) means applying g": 2050, " first, then f.  ## Rules Evaluate a lin": 2051, "stitute that value into f.  ## Worked Examples 1.  ": 2052, "position f(g(x)), compute g(x) first and sub": 2053, "aps each input x to exactly ": 2054, "t.  For a composition f(g(x)), compute g(x) first and sub": 2055, "ear function f(x) = ax + b by substituting the inpu": 2056, "  ## Definition A function f maps each input x to exactly ": 2057, "one output f(x).  Composition f(g(x)) means applying g first, then f.  ## Rules Evaluate a lin": 2058, "t.  For a composition f(g(x)), compute g(x) first and substitute that value into f.  ## Worked Examples 1.  ": 2059, "ear function f(x) = ax + b by substituting the input.  For a composition f(g(x)), compute g(x) first and substitute that value into f.  ## Worked Examples 1.  ": 2060, "  ## Definition A function f maps each input x to exactly one output f(x).  Composition f(g(x)) means applying g first, then f.  ## Rules Evaluate a lin": 2061, "  ## Definition A function f maps each input x to exactly one output f(x).  Composition f(g(x)) means applying g first, then f.  ## Rules Evaluate a linear function f(x) = ax + b by substituting the input.  For a composition f(g(x)), compute g(x) first and substitute that value into f.  ## Worked Examples 1.  ": 2062, ") + ": 2063, "4 - ": 2064, "I; ": 2065, "Py": 2066, "Stan": 2067, "V.  The ": 2068, "e, ": 2069, "ean ": 2070, "function": 2071, "os ": 2072, "tes the ": 2073, "ugh": 2074, "e and ": 2075, "s sin": 2076, "tios ": 2077, "thro": 2078, "thag": 2079, ": sin(30Â°) = ": 2080, "y st": 2081, "y re": 2082, ", tan(60Â°) = â": 2083, ", cos(45Â°) = â": 2084, "## Worked Examples 1.  ": 2085, "orean ": 2086, "and side ": 2087, "ratios ": 2088, "es sin": 2089, "entit": 2090, "of ri": 2091, "3.  sin": 2092, "cosin": 2093, "es: sin(30Â°) = ": 2094, "1/2, cos(45Â°) = â": 2095, "cos(x) is positive in quadrants I and I": 2096, "cos^2(Î¸": 2097, "identit": 2098, ".  ## Rules Stan": 2099, "  ## Definition Trigonometr": 2100, ".# Trigonometr": 2101, "ent.  ## Rules Stan": 2102, "triangles ": 2103, "lates the ": 2104, " the function": 2105, ") = 1.  ## Worked Examples 1.  ": 2106, "tangent.  ## Rules Stan": 2107, "ght triangles ": 2108, "angles and side ": 2109, "(x) is positive in quadrants I and II; ": 2110, "^2(Î¸) + ": 2111, "ates sin": 2112, "dard exact values: sin(30Â°) = ": 2113, "2/2, tan(60Â°) = â": 2114, "Pythag": 2115, "V.  The Pythag": 2116, "e, cosin": 2117, "ugh the function": 2118, "e and tangent.  ## Rules Stan": 2119, "s sine, cosin": 2120, "through the function": 2121, "y states sin": 2122, "y relates the ": 2123, "orean identit": 2124, "ratios of ri": 2125, "3.  sin(x) is positive in quadrants I and II; ": 2126, "1/2, cos(45Â°) = â2/2, tan(60Â°) = â": 2127, "cos(x) is positive in quadrants I and IV.  The Pythag": 2128, "cos^2(Î¸) = 1.  ## Worked Examples 1.  ": 2129, "  ## Definition Trigonometry relates the ": 2130, ".# Trigonometry -- Practice ": 2131, "ght triangles through the function": 2132, "angles and side ratios of ri": 2133, "^2(Î¸) + cos^2(Î¸) = 1.  ## Worked Examples 1.  ": 2134, "dard exact values: sin(30Â°) = 1/2, cos(45Â°) = â2/2, tan(60Â°) = â": 2135, "e and tangent.  ## Rules Standard exact values: sin(30Â°) = 1/2, cos(45Â°) = â2/2, tan(60Â°) = â": 2136, "s sine, cosine and tangent.  ## Rules Standard exact values: sin(30Â°) = 1/2, cos(45Â°) = â2/2, tan(60Â°) = â": 2137, "y states sin^2(Î¸) + cos^2(Î¸) = 1.  ## Worked Examples 1.  ": 2138, "orean identity states sin^2(Î¸) + cos^2(Î¸) = 1.  ## Worked Examples 1.  ": 2139, "3.  sin(x) is positive in quadrants I and II; cos(x) is positive in quadrants I and IV.  The Pythag": 2140, "  ## Definition Trigonometry relates the angles and side ratios of ri": 2141, "ght triangles through the functions sine, cosine and tangent.  ## Rules Standard exact values: sin(30Â°) = 1/2, cos(45Â°) = â2/2, tan(60Â°) = â": 2142, "3.  sin(x) is positive in quadrants I and II; cos(x) is positive in quadrants I and IV.  The Pythagorean identity states sin^2(Î¸) + cos^2(Î¸) = 1.  ## Worked Examples 1.  ": 2143, "  ## Definition Trigonometry relates the angles and side ratios of right triangles through the functions sine, cosine and tangent.  ## Rules Standard exact values: sin(30Â°) = 1/2, cos(45Â°) = â2/2, tan(60Â°) = â": 2144, "  ## Definition Trigonometry relates the angles and side ratios of right triangles through the functions sine, cosine and tangent.  ## Rules Standard exact values: sin(30Â°) = 1/2, cos(45Â°) = â2/2, tan(60Â°) = â3.  sin(x) is positive in quadrants I and II; cos(x) is positive in quadrants I and IV.  The Pythagorean identity states sin^2(Î¸) + cos^2(Î¸) = 1.  ## Worked Examples 1.  ": 2145, " of 4": 2146, "Fir": 2147, "g(": 2148, " f(": 2149, ").  Solution: Fir": 2150, "Then f(": 2151, "st g(": 2152, ").  Solution: First g(": 2153, "23": 2154, "x^2.  ": 2155, "35": 2156, " 6.  f'(x) = ": 2157, "*sin(2x)": 2158, "21": 2159, "48": 2160, "7.  ": 2161, " + 9": 2162, "56": 2163, "90Â°": 2164, " mod 1": 2165, "9)": 2166, " + 7": 2167, " 5.  f'(x) = ": 2168, " of 2": 2169, " + C.  Answer: ": 2170, "*sin(4x)": 2171, " + 6": 2172, "1/4": 2173, "3 to ": 2174, ", perimeter = 3": 2175, "1 times.  What is the probability of ": 2176, "3 times.  What is the probability of ": 2177, "Compute 8": 2178, "A fair coin is flipped 1 times.  What is the probability of ": 2179, "A fair coin is flipped 3 times.  What is the probability of ": 2180, "A fair coin is flipped 1 times.  What is the probability of 1": 2181, "A fair coin is flipped 3 times.  What is the probability of 3": 2182, " 4.  f'(x) = ": 2183, " of 1": 2184, "9.  ": 2185, "7x + ": 2186, "9x + ": 2187, "no": 2188, "2 times.  What is the probability of ": 2189, "Evaluate the definite integral â« from 1 to ": 2190, "A fair coin is flipped 2 times.  What is the probability of ": 2191, "A fair coin is flipped 2 times.  What is the probability of 2": 2192, "3x^2 - ": 2193, ".  Answer: area = ": 2194, "Compute 9": 2195, "App": 2196, "FO": 2197, "IL": 2198, "ly FO": 2199, " 3.  f'(x) = ": 2200, ").  Solution: App": 2201, "IL: ": 2202, "ly FOIL: ": 2203, ").  Solution: Apply FOIL: ": 2204, "8*": 2205, ", â« ": 2206, "Using": 2207, "inat": 2208, "enom": 2209, " denom": 2210, ".  Solution: Using": 2211, " the common": 2212, " and give the answer in lowest terms.  Solution: Using": 2213, "inator ": 2214, " denominator ": 2215, " the common denominator ": 2216, " and give the answer in lowest terms.  Solution: Using the common denominator ": 2217, "-6": 2218, "Compute 6": 2219, "0 to ": 2220, "32": 2221, "1/8": 2222, "'(x) = ": 2223, "ate ": 2224, "x, d/dx[": 2225, "x^2, d/dx[": 2226, "term by ": 2227, "term: d/dx[": 2228, ", so f": 2229, "fferentiate ": 2230, "Differentiate ": 2231, "term by term: d/dx[": 2232, ", so f'(x) = ": 2233, "Differentiate term by term: d/dx[": 2234, "ore ": 2235, "efore ": 2236, ").  Answer: ": 2237, "Therefore ": 2238, "3 2.  ": 2239, "7 - ": 2240, "e the ": 2241, "terms": 2242, "Compute 5": 2243, "combin": 2244, "x; combin": 2245, "e the terms": 2246, "x; combine the terms": 2247, "x^3 - 1": 2248, "8x - ": 2249, "1x^3": 2250, "5 - ": 2251, "the po": 2252, "Solution: By ": 2253, "rule, d/dx[": 2254, "wer rule, d/dx[": 2255, "the power rule, d/dx[": 2256, "Solution: By the power rule, d/dx[": 2257, ".  Solution: By ": 2258, "the chain rule, d/dx[": 2259, ".  Solution: By the chain rule, d/dx[": 2260, "4x^2 + ": 2261, "6 - ": 2262, "42": 2263, ", â« -": 2264, "5 2.  ": 2265, "Evaluate the definite integral â« from 2 to ": 2266, " and multiply to -": 2267, " x^(": 2268, "] from ": 2269, " + 5": 2270, "x^2 dx.  Solution: ": 2271, "â« from ": 2272, "/3] from ": 2273, "^3/3 - ": 2274, " + 1) + C": 2275, " + 1) x^(": 2276, "x^2 dx = [": 2277, "x^2 dx.  Solution: â« from ": 2278, "Solution: Differentiate term by term: d/dx[": 2279, "x + 18": 2280, "0 2.  ": 2281, "37": 2282, "9 - ": 2283, ".  Solution: Subtract ": 2284, "6 ": 2285, "8 - ": 2286, " 5.  x = -": 2287, ") * ": 2288, "mu": 2289, "They ": 2290, "The roots ": 2291, ".  Solution: The roots ": 2292, " = 0.  Solution: The roots ": 2293, "st add ": 2294, "Find its area and perimeter.  Solution: Area": 2295, "must add ": 2296, "They are ": 2297, " = 0.  Solution: The roots must add ": 2298, "7x - ": 2299, "1/6 2.  ": 2300, "7*": 2301, "Ï 2.  ": 2302, "!(": 2303, "!/(": 2304, "C(": 2305, "is C(": 2306, " dx.  4.  ": 2307, "?    Solution: The number of k-subsets of an n-set ": 2308, " exist?    Solution: The number of k-subsets of an n-set ": 2309, " exist?    Solution: The number of k-subsets of an n-set is C(": 2310, " 3.  area = ": 2311, "Find the exact value of cos(": 2312, "Find the exact value of sin(": 2313, "Find the exact value of tan(": 2314, "1 f": 2315, "38": 2316, "e ou": 2317, "t of ": 2318, "e is 1 f": 2319, "?    Solution: Ther": 2320, "equally likely outcomes, so P": 2321, "avourable outcome ou": 2322, " = 1/6.  Answer: ": 2323, "6 equally likely outcomes, so P": 2324, "t of 6 equally likely outcomes, so P": 2325, "e is 1 favourable outcome ou": 2326, "?    Solution: There is 1 favourable outcome ou": 2327, "t of 6 equally likely outcomes, so P = 1/6.  Answer: ": 2328, "?    Solution: There is 1 favourable outcome out of 6 equally likely outcomes, so P = 1/6.  Answer: ": 2329, " + 8": 2330, ".  Answer: f'(x) = ": 2331, " has ": 2332, "andard exact valu": 2333, "standard exact valu": 2334, ").  Solution: The standard exact valu": 2335, ").  Solution: The standard exact value is ": 2336, " 2.  f'(x) = ": 2337, "4 + C": 2338, " 5.  area = ": 2339, " 4.  x = ": 2340, "39": 2341, " dx.  6.  ": 2342, " = 3*": 2343, "/5x^5": 2344, "A fair coin is flipped 1 times.  What is the probability of 1 heads in a row?": 2345, "!) = ": 2346, "Find its area.  Solution: Area": 2347, " = (1/2)*": 2348, "Find its area.  Solution: Area = (1/2)*": 2349, "A fair coin is flipped 3 times.  What is the probability of 3 heads in a row?": 2350, " dx.  3.  ": 2351, "70": 2352, "V: ": 2353, "s is ": 2354, " - 60Â°": 2355, " and x = 3": 2356, "cos is ": 2357, "cos(x) = 1/2 in [0Â°, 360Â°].  ": 2358, "60Â° - 60Â°": 2359, " 6.  area = ": 2360, ".  Solution: cos(x) = 1/2 in [0Â°, 360Â°].  ": 2361, ".  Answer: x = 60Â° or x = 300Â°": 2362, " = 300Â°": 2363, "positive in quadrants I and IV: ": 2364, "x = 60Â° and x = 3": 2365, "Solve cos(x) = 1/2 for x in [0Â°, 360Â°].  Solution: cos(x) = 1/2 in [0Â°, 360Â°].  ": 2366, "cos is positive in quadrants I and IV: ": 2367, "60Â° - 60Â° = 300Â°": 2368, "x = 60Â° and x = 360Â° - 60Â° = 300Â°": 2369, "Solve cos(x) = 1/2 for x in [0Â°, 360Â°].  Solution: cos(x) = 1/2 in [0Â°, 360Â°].  cos is positive in quadrants I and IV: ": 2370, "x = 60Â° and x = 360Â° - 60Â° = 300Â°.  Answer: x = 60Â° or x = 300Â°": 2371, "Solve cos(x) = 1/2 for x in [0Â°, 360Â°].  Solution: cos(x) = 1/2 in [0Â°, 360Â°].  cos is positive in quadrants I and IV: x = 60Â° and x = 360Â° - 60Â° = 300Â°.  Answer: x = 60Â° or x = 300Â°": 2372, " = 10": 2373, " 3.  x = -": 2374, "x - 18": 2375, " dx.  2.  ": 2376, "% of 40": 2377, "7 2.  ": 2378, "2) = ": 2379, " 6.  x = ": 2380, "4x^3": 2381, " + 4": 2382, ", 9": 2383, "x = 18": 2384, "5.  Solve for x: ": 2385, " dx.  5.  ": 2386, "6*": 2387, "is": 2388, " divis": 2389, "/100) * ": 2390, " divisor ": 2391, ", perimeter = 2": 2392, "22": 2393, "2.  Solve for x: ": 2394, "3.  Solve for x: ": 2395, "9*": 2396, "% of 20": 2397, "6.  Solve for x: ": 2398, " 4.  x = -": 2399, "A fair coin is flipped 2 times.  What is the probability of 2 heads in a row?": 2400, "I: ": 2401, "sin is ": 2402, " = 150Â°": 2403, " - 30Â°": 2404, " and x = 18": 2405, "0Â° - 30Â°": 2406, "sin(x) = 1/2 in [0Â°, 360Â°].  ": 2407, " 4.  area = ": 2408, ".  Solution: sin(x) = 1/2 in [0Â°, 360Â°].  ": 2409, ".  Answer: x = 30Â° or x = 150Â°": 2410, "positive in quadrants I and II: ": 2411, "x = 30Â° and x = 18": 2412, "Solve sin(x) = 1/2 for x in [0Â°, 360Â°].  Solution: sin(x) = 1/2 in [0Â°, 360Â°].  ": 2413, "sin is positive in quadrants I and II: ": 2414, " = 150Â°.  Answer: x = 30Â° or x = 150Â°": 2415, "0Â° - 30Â° = 150Â°.  Answer: x = 30Â° or x = 150Â°": 2416, "x = 30Â° and x = 180Â° - 30Â° = 150Â°.  Answer: x = 30Â° or x = 150Â°": 2417, "Solve sin(x) = 1/2 for x in [0Â°, 360Â°].  Solution: sin(x) = 1/2 in [0Â°, 360Â°].  sin is positive in quadrants I and II: ": 2418, "Solve sin(x) = 1/2 for x in [0Â°, 360Â°].  Solution: sin(x) = 1/2 in [0Â°, 360Â°].  sin is positive in quadrants I and II: x = 30Â° and x = 180Â° - 30Â° = 150Â°.  Answer: x = 30Â° or x = 150Â°": 2419, "4.  Solve for x: ": 2420, "5x^2 + ": 2421, "72": 2422, " = Ïr^2": 2423, " = Ï*": 2424, "Ï; ": 2425, "Ï.  Answer: area = ": 2426, ").  Solution: Area": 2427, " = 2*Ï*": 2428, "Find its area and circumference (leave answers in terms of Ï).  Solution: Area": 2429, "circumference = 2Ïr = 2*Ï*": 2430, " = Ïr^2 = Ï*": 2431, "Ï; circumference = 2Ïr = 2*Ï*": 2432, "Find its area and circumference (leave answers in terms of Ï).  Solution: Area = Ïr^2 = Ï*": 2433, "2 + C": 2434, ".  Answer: -": 2435, "% of 80": 2436, "54": 2437, "Solution: f(": 2438, " 3.  x = ": 2439, "2x^3": 2440, "1Ï, circumference = ": 2441, "65": 2442, "Eac": 2443, "h f": 2444, "p has ": 2445, "y 1/2": 2446, "1/2)": 2447, " 5.  x = ": 2448, "lip has ": 2449, "probability 1/2": 2450, "?    Solution: Eac": 2451, " = (1/2)": 2452, " heads in a row?    Solution: Eac": 2453, ", so P = (1/2)": 2454, "h flip has ": 2455, "probability 1/2, so P = (1/2)": 2456, " heads in a row?    Solution: Each flip has ": 2457, " heads in a row?    Solution: Each flip has probability 1/2, so P = (1/2)": 2458, " 6.  x = -": 2459, "1 + C": 2460, " = 12": 2461, "x + 17": 2462, " + 3": 2463, "x - 14": 2464, "1 - ": 2465, "-7": 2466, "x^2 - 3": 2467, "9x - ": 2468, ", 8": 2469, "Compute 4": 2470, "Evaluate the definite integral â« from 0 to ": 2471, "Evaluate the indefinite integral â« 3": 2472, "15x^2 + ": 2473, "-8": 2474, "4 to ": 2475, "grea": 2476, "ich": 2477, "test ": 2478, "Find the derivative of f(x) = 6": 2479, " is gcd(": 2480, "which": 2481, "common divisor ": 2482, ").  Solution: The grea": 2483, "test common divisor ": 2484, "which is gcd(": 2485, ").  Solution: The greatest common divisor ": 2486, ").  Solution: The greatest common divisor is the largest integer dividing both ": 2487, "58": 2488, "  ## Definition A function f maps each input x to exactly one output f(x).  Composition f(g(x)) means applying g first, then f.  ## Rules Evaluate a linear function f(x) = ax + b by substituting the input.  For a composition f(g(x)), compute g(x) first and substitute that value into f.  ## Worked Examples 1.  Evaluate f(x) = ": 2489, "4x^2 - ": 2490, "Evaluate the definite integral â« from 3 to ": 2491, "  ## Exercises 1.  Given f(x) = ": 2492, "x + 14": 2493, "10.  ": 2494, "x - 16": 2495, " and height 8.  ": 2496, "x^4 + C": 2497, "34": 2498, "Solution: Find ": 2499, "7.  Answer: ": 2500, "x - 19": 2501, ").  Solution: lcm(": 2502, "Evaluate the indefinite integral â« 6": 2503, " and height 12.  ": 2504, ", which is gcd(": 2505, "63": 2506, " + 2": 2507, ", 7": 2508, "6x^2 + ": 2509, " and height 6.  ": 2510, "x^2 dx.  5.  ": 2511, "x - 17": 2512, "33": 2513, "A fair six-sided die is rolled once.  What is the probability of rolling exactly 3": 2514, "(x + 3)": 2515, " and height 14.  ": 2516, "(x + 4)": 2517, "x^2 dx.  2.  ": 2518, "47": 2519, "1 3.  ": 2520, "x + 3": 2521, "(x + 5)": 2522, "â3/2": 2523, "leaves ": 2524, "remainder ": 2525, "leaves remainder ": 2526, "â2/2": 2527, "x^3 - 1/2": 2528, "x^2 dx.  3.  ": 2529, "1/3x^3 + ": 2530, "0?    Solution: ": 2531, "0 = (": 2532, "15x^2 - ": 2533, "A fair six-sided die is rolled once.  What is the probability of rolling exactly 6": 2534, "9 2.  ": 2535, "10 2.  ": 2536, "x + 16": 2537, " and height 10.  ": 2538, "A fair six-sided die is rolled once.  What is the probability of rolling exactly 1": 2539, "1 6.  ": 2540, "1 5.  ": 2541, "9x^2 - ": 2542, ") = 1.  Answer: ": 2543, "x^2 dx.  6.  ": 2544, "  ## Definition Algebra generalizes arithmetic by using symbols, typically letters, to represent numbers that may be unknown or variable.  ## Rules The distributive law a(b + c) = ab + ac lets you expand products.  To factor x^2 + px + q, find two numbers that add to p and multiply to q.  A quadratic x^2 + px + q = 0 with roots r1 and r2 satisfies r1 + r2 = -p and r1*r2 = q.  ## Worked Examples 1.  Expand (": 2545, "me.  Answer: ": 2546, ") / ": 2547, "it is ": 2548, ", so it is ": 2549, "prime.  Answer: ": 2550, "(x + 7)": 2551, "(x - 5)": 2552, " a prime number?    Solution: ": 2553, ") / gcd(": 2554, ".  ## Answer Key 1.  area = ": 2555, " and height 2.  ": 2556, "(x - 2)": 2557, "x^3 - 3/2": 2558, "  ## Exercises 1.  Evaluate f(x) = ": 2559, " and height 4.  ": 2560, "(x - 4)": 2561, "## Answer Key 1.  f'(x) = ": 2562, "/3.  Answer: ": 2563, "x - 2": 2564, "x + 19": 2565, ", perimeter = 4": 2566, "46": 2567, "(x - 6)": 2568, "Evaluate the indefinite integral â« 5": 2569, "  ## Definition A function f maps each input x to exactly one output f(x).  Composition f(g(x)) means applying g first, then f.  ## Rules Evaluate a linear function f(x) = ax + b by substituting the input.  For a composition f(g(x)), compute g(x) first and substitute that value into f.  ## Worked Examples 1.  Given f(x) = ": 2570, ".  ## Answer Key 1.  f'(x) = ": 2571, "x + 11": 2572, "Therefore x^2 + ": 2573, "6x^2 - ": 2574, " *": 2575, " leaves remainder ": 2576, "3x^2": 2577, "2x^2": 2578, "67": 2579, ".  Answer: x = ": 2580, " = -1": 2581, "(x + 8)": 2582, "(x - 1)": 2583, "A fair six-sided die is rolled once.  What is the probability of rolling exactly 2": 2584, "x^2 dx.  4.  ": 2585, "52": 2586, ") = 2*": 2587, " = 0.  2.  ": 2588, "66": 2589, "(x + 1)": 2590, "5x^2 - ": 2591, "? 6.  ": 2592, "  ## Exercises 1.  What is ": 2593, ".  ## Answer Key 1.  x = -": 2594, "(x - 8)": 2595, "/5x^5 + C": 2596, " = 0.  6.  ": 2597, "44": 2598, "? 2.  ": 2599, ") = (": 2600, "  ## Exercises 1.  Compute ": 2601, "x - 11": 2602, "(x - 7)": 2603, " dx.  Solution: â« -": 2604, "x; combine the terms: -": 2605, "69": 2606, "9x^2 + ": 2607, "x^2 dx.  ## Answer Key 1.  ": 2608, "(x + 2)": 2609, "Evaluate the indefinite integral â« (-2": 2610, " and give the answer in lowest terms.  5.  ": 2611, "88": 2612, " = 1*": 2613, "(x + 6)": 2614, "-3x^2 + ": 2615, "1*cos(1x)": 2616, "68": 2617, "x] = -": 2618, ".  ## Answer Key 1.  x = ": 2619, "Evaluate the indefinite integral â« (-4": 2620, "Evaluate the indefinite integral â« 1": 2621, "53": 2622, "55": 2623, "1) *": 2624, "x - 13": 2625, "A fair six-sided die is rolled once.  What is the probability of rolling exactly 4": 2626, "1) * (": 2627, "1!(": 2628, ", 1) = ": 2629, "  ## Exercises 1.  Expand (": 2630, "1)!) = ": 2631, " distinct items, how many subsets of size 1 exist?    Solution: The number of k-subsets of an n-set is C(": 2632, "!/(1!(": 2633, "3x^3": 2634, "50?": 2635, "90": 2636, "? 5.  ": 2637, ".  Solution: f(": 2638, "12x^2 - ": 2639, "% of 50?": 2640, "A fair six-sided die is rolled once.  What is the probability of rolling exactly 5": 2641, "two numbers that add to -": 2642, "% of 200?": 2643, "43": 2644, "98": 2645, "9) * (": 2646, "? 3.  ": 2647, "? 4.  ": 2648, "12x^2 + ": 2649, " and give the answer in lowest terms.  4.  ": 2650, "  ## Definition Arithmetic is the study of numbers and the basic operations performed on them: addition, subtraction, multiplication and division.  ## Rules Add and subtract by aligning place values.  Multiply digit by digit and add partial products.  A fraction a/b is in lowest terms when gcd(a, b) = 1.  A percentage p% is the fraction p/100.  ## Worked Examples 1.  What is ": 2651, "% of 800?": 2652, "x^2] = -": 2653, " and -": 2654, "Find its area.  5.  ": 2655, "Evaluate the indefinite integral â« (-1": 2656, " and give the answer in lowest terms.  ## Answer Key 1.  ": 2657, "1 4.  ": 2658, "  ## Exercises 1.  A circle has radius ": 2659, " and g(x) = 4x + ": 2660, "Find its area and circumference (leave answers in terms of Ï).  2.  ": 2661, "3*cos(3x)": 2662, " = 16": 2663, " = 0.  Solution: The roots must add to -": 2664, "% of 400?": 2665, ") = 1*": 2666, "x + 13": 2667, ".  4.  Solve for x: ": 2668, "no 2.  ": 2669, " and give the answer in lowest terms.  2.  ": 2670, " heads in a row?    Solution: Each flip has probability 1/2, so P = (1/2)^": 2671, "59": 2672, "84": 2673, "t prime.  Answer: ": 2674, " is divisi": 2675, " = 0.  5.  ": 2676, "ble by ": 2677, "Find its area and circumference (leave answers in terms of Ï).  3.  ": 2678, "not prime.  Answer: ": 2679, "x; combine the terms: ": 2680, ", so it is not prime.  Answer: ": 2681, " is divisible by ": 2682, "4x": 2683, ".  6.  Solve for x: ": 2684, "Evaluate the indefinite integral â« 4": 2685, " and give the answer in lowest terms.  6.  ": 2686, " and g(x) = 2x + ": 2687, "  ## Definition Probability measures the likelihood of an event as a number between 0 and 1, equal to favourable outcomes divided by equally likely outcomes.  ## Rules For equally likely outcomes, P(event) = favourable / total.  Independent events multiply: P(A and B) = P(A)*P(B).  The number of k-subsets of an n-set is the binomial coefficient C(n, k).  ## Worked Examples 1.  From ": 2688, "78": 2689, "9.  Answer: ": 2690, ") = 5*": 2691, "x^3 + C": 2692, "x^3] = -": 2693, " = 1x - ": 2694, ".  3.  Solve for x: ": 2695, ".  2.  Solve for x: ": 2696, "1x^2": 2697, "3) * (": 2698, "76": 2699, "77": 2700, "?  ## Answer Key 1.  ": 2701, "(x - 3)": 2702, "x^3 + 1/2": 2703, "x^2 + 3": 2704, "10)": 2705, "10x - ": 2706, "  ## Definition Geometry studies shapes, their properties and their measurement.  Common measurements are area (the space inside a shape) and perimeter or circumference (its boundary length).  ## Rules Rectangle area = width * height; perimeter = 2*(width + height).  Triangle area = (1/2)*base*height.  Circle area = Ïr^2 and circumference = 2Ïr.  ## Worked Examples 1.  A rectangle has width ": 2707, "8) * (": 2708, "10x + 2": 2709, "Find the derivative of f(x) = -4": 2710, " = 0.  3.  ": 2711, " and g(x) = 2x - ": 2712, ".  5.  Solve for x: ": 2713, "Find its area and circumference (leave answers in terms of Ï).  6.  ": 2714, "Find its area and perimeter.  4.  ": 2715, "4 4.  ": 2716, "yes ": 2717, " 5.  1/6": 2718, "Find its area and circumference (leave answers in terms of Ï).  4.  ": 2719, "% of 1000?": 2720, "?    Solution: There is 1 favourable outcome out of 6 equally likely outcomes, so P = 1/6.  Answer: 1/6 2.  ": 2721, " 5.  1/6 6.  ": 2722, "62": 2723, "7) * (": 2724, " = 0.  4.  ": 2725, "1/6  ## Exercises 1.  ": 2726, " = 0.  Solution: The roots must add to ": 2727, "Evaluate the definite integral â« from 4 to ": 2728, "Ï, circumference = 16": 2729, "-3x^2 - ": 2730, "64Ï, circumference = 16": 2731, "?    Solution: There is 1 favourable outcome out of 6 equally likely outcomes, so P = 1/6.  Answer: 1/6  ## Exercises 1.  ": 2732, "75": 2733, " and g(x) = 4x - ": 2734, " and g(x) = 5x + ": 2735, "Solve cos(x) = 1/2 for x in [0Â°, 360Â°].  ## Answer Key 1.  ": 2736, "x = 60Â° or x = 300Â°.# Trigonometry -- Practice ": 2737, " and give the answer in lowest terms.  3.  ": 2738, "1x": 2739, "57": 2740, "defin": 2741, ".  Then (": 2742, " = 4x - ": 2743, "undefin": 2744, "1/6 3.  ": 2745, "Ï, circumference = 10": 2746, "25Ï, circumference = 10": 2747, "4) * (": 2748, ") = 4*": 2749, " and g(x) = 1x - ": 2750, "1/6.# Probability -- Practice ": 2751, "3.  Answer: f'(x) = ": 2752, "Therefore x^2 - ": 2753, "Solve cos(x) = 1/2 for x in [0Â°, 360Â°].  Solution: cos(x) = 1/2 in [0Â°, 360Â°].  cos is positive in quadrants I and IV: x = 60Â° and x = 360Â° - 60Â° = 300Â°.  Answer: x = 60Â° or x = 300Â°  ## Exercises 1.  ": 2754, ") = 3*": 2755, "Ï.# Geometry -- Practice ": 2756, " 6.  1": 2757, "x^3 + 3/2": 2758, "x^3 + 2x^2 - ": 2759, "x + 2)": 2760, "Find its area and circumference (leave answers in terms of Ï).  ## Answer Key 1.  ": 2761, "Solve sin(x) = 1/2 for x in [0Â°, 360Â°].  3.  ": 2762, "x = 30Â° or x = 150Â° 3.  ": 2763, " = 9x - ": 2764, "1  ## Exercises 1.  ": 2765, "4.  4.  ": 2766, "1/2 2.  ": 2767, "Find its area.  6.  ": 2768, " and g(x) = 3x - ": 2769, " and g(x) = 1x + ": 2770, "Find its area and perimeter.  6.  ": 2771, "Solve sin(x) = 1/2 for x in [0Â°, 360Â°].  6.  ": 2772, "  ## Definition Geometry studies shapes, their properties and their measurement.  Common measurements are area (the space inside a shape) and perimeter or circumference (its boundary length).  ## Rules Rectangle area = width * height; perimeter = 2*(width + height).  Triangle area = (1/2)*base*height.  Circle area = Ïr^2 and circumference = 2Ïr.  ## Worked Examples 1.  A circle has radius ": 2773, "  ## Definition Trigonometry relates the angles and side ratios of right triangles through the functions sine, cosine and tangent.  ## Rules Standard exact values: sin(30Â°) = 1/2, cos(45Â°) = â2/2, tan(60Â°) = â3.  sin(x) is positive in quadrants I and II; cos(x) is positive in quadrants I and IV.  The Pythagorean identity states sin^2(Î¸) + cos^2(Î¸) = 1.  ## Worked Examples 1.  Solve cos(x) = 1/2 for x in [0Â°, 360Â°].  Solution: cos(x) = 1/2 in [0Â°, 360Â°].  cos is positive in quadrants I and IV: x = 60Â° and x = 360Â° - 60Â° = 300Â°.  Answer: x = 60Â° or x = 300Â°": 2774, "  ## Definition Trigonometry relates the angles and side ratios of right triangles through the functions sine, cosine and tangent.  ## Rules Standard exact values: sin(30Â°) = 1/2, cos(45Â°) = â2/2, tan(60Â°) = â3.  sin(x) is positive in quadrants I and II; cos(x) is positive in quadrants I and IV.  The Pythagorean identity states sin^2(Î¸) + cos^2(Î¸) = 1.  ## Worked Examples 1.  Solve cos(x) = 1/2 for x in [0Â°, 360Â°].  Solution: cos(x) = 1/2 in [0Â°, 360Â°].  cos is positive in quadrants I and IV: x = 60Â° and x = 360Â° - 60Â° = 300Â°.  Answer: x = 60Â° or x = 300Â° 2.  ": 2775, "x^3 - 2x^2 - ": 2776, "Evaluate the indefinite integral â« 2": 2777, "Solve cos(x) = 1/2 for x in [0Â°, 360Â°].  3.  ": 2778, "x = 60Â° or x = 300Â° 3.  ": 2779, "Solve sin(x) = 1/2 for x in [0Â°, 360Â°].  5.  ": 2780, "x = 30Â° or x = 150Â° 5.  ": 2781, "  ## Definition Geometry studies shapes, their properties and their measurement.  Common measurements are area (the space inside a shape) and perimeter or circumference (its boundary length).  ## Rules Rectangle area = width * height; perimeter = 2*(width + height).  Triangle area = (1/2)*base*height.  Circle area = Ïr^2 and circumference = 2Ïr.  ## Worked Examples 1.  A triangle has base ": 2782, "-9": 2783, "1/6 4.  ": 2784, "-2/3": 2785, "Solve sin(x) = 1/2 for x in [0Â°, 360Â°].  4.  ": 2786, "x = 30Â° or x = 150Â° 4.  ": 2787, "0.  Answer: ": 2788, "4x^(": 2789, "74": 2790, "81Ï, circumference = ": 2791, "9Ï, circumference = ": 2792, "  ## Exercises 1.  A rectangle has width ": 2793, "Find its area.  3.  ": 2794, "Find its area and perimeter.  5.  ": 2795, "Find its area and perimeter.  3.  ": 2796, "Find its area and perimeter.  2.  ": 2797, "x^4.  Solution: By the power rule, d/dx[": 2798, "4 - 1) = ": 2799, "Solve sin(x) = 1/2 for x in [0Â°, 360Â°].  Solution: sin(x) = 1/2 in [0Â°, 360Â°].  sin is positive in quadrants I and II: x = 30Â° and x = 180Â° - 30Â° = 150Â°.  Answer: x = 30Â° or x = 150Â°  ## Exercises 1.  ": 2800, "4x^(4 - 1) = ": 2801, "81Ï, circumference = 18": 2802, "9Ï, circumference = 6": 2803, "2 4.  ": 2804, "2*cos(2x)": 2805, "2.  ## Answer Key 1.  ": 2806, "x^3, â« ": 2807, " 6.  x = 60Â° or x = 300Â°.# Trigonometry -- Practice ": 2808, "] = 4*": 2809, "Solve sin(x) = 1/2 for x in [0Â°, 360Â°].  ## Answer Key 1.  ": 2810, "x = 30Â° or x = 150Â°.# Trigonometry -- Practice ": 2811, "2!(": 2812, ", 2) = ": 2813, "Compute 3": 2814, " and height 3.  ": 2815, " = 18": 2816, "x^3 + 2x^2 + ": 2817, "Solve cos(x) = 1/2 for x in [0Â°, 360Â°].  5.  ": 2818, "x = 60Â° or x = 300Â° 5.  ": 2819, " = 7x - ": 2820, " distinct items, how many subsets of size 2 exist?    Solution: The number of k-subsets of an n-set is C(": 2821, "!/(2!(": 2822, "6) * (": 2823, "x + 4": 2824, "  ## Exercises 1.  A triangle has base ": 2825, "Find its area.  2.  ": 2826, "x^3 - 1x^2 - ": 2827, "] = 3*": 2828, "Find the derivative of f(x) = -1": 2829, "Find the derivative of f(x) = -2": 2830, "Find its area.  4.  ": 2831, "16Ï, circumference = ": 2832, "Find its area and circumference (leave answers in terms of Ï).  5.  ": 2833, "Solve cos(x) = 1/2 for x in [0Â°, 360Â°].  6.  ": 2834, "Solve cos(x) = 1/2 for x in [0Â°, 360Â°].  2.  ": 2835, "x = 60Â° or x = 300Â° 2.  ": 2836, "  ## Definition Trigonometry relates the angles and side ratios of right triangles through the functions sine, cosine and tangent.  ## Rules Standard exact values: sin(30Â°) = 1/2, cos(45Â°) = â2/2, tan(60Â°) = â3.  sin(x) is positive in quadrants I and II; cos(x) is positive in quadrants I and IV.  The Pythagorean identity states sin^2(Î¸) + cos^2(Î¸) = 1.  ## Worked Examples 1.  Solve sin(x) = 1/2 for x in [0Â°, 360Â°].  Solution: sin(x) = 1/2 in [0Â°, 360Â°].  sin is positive in quadrants I and II: x = 30Â° and x = 180Â° - 30Â° = 150Â°.  Answer: x = 30Â° or x = 150Â°": 2837, "x^3 - 1x^2 + ": 2838, "16Ï, circumference = 8": 2839, "  ## Definition Trigonometry relates the angles and side ratios of right triangles through the functions sine, cosine and tangent.  ## Rules Standard exact values: sin(30Â°) = 1/2, cos(45Â°) = â2/2, tan(60Â°) = â3.  sin(x) is positive in quadrants I and II; cos(x) is positive in quadrants I and IV.  The Pythagorean identity states sin^2(Î¸) + cos^2(Î¸) = 1.  ## Worked Examples 1.  Solve sin(x) = 1/2 for x in [0Â°, 360Â°].  Solution: sin(x) = 1/2 in [0Â°, 360Â°].  sin is positive in quadrants I and II: x = 30Â° and x = 180Â° - 30Â° = 150Â°.  Answer: x = 30Â° or x = 150Â° 2.  ": 2840, "4 or x = -": 2841, "5) * (": 2842, "96": 2843, " = 40": 2844, " and height 5.  ": 2845, "x^2 + C 2.  ": 2846, " and height 9.  ": 2847, " and g(x) = 5x - ": 2848, "-4/3": 2849, " = 6x - ": 2850, "1.  Answer: f'(x) = ": 2851, "2x": 2852, "From 9": 2853, "Ï, circumference = 14": 2854, "Solve cos(x) = 1/2 for x in [0Â°, 360Â°].  4.  ": 2855, "x = 60Â° or x = 300Â° 4.  ": 2856, "Solve sin(x) = 1/2 for x in [0Â°, 360Â°].  2.  ": 2857, "x = 30Â° or x = 150Â° 2.  ": 2858, "49Ï, circumference = 14": 2859, "/2.  Answer: ": 2860, "4Ï, circumference = ": 2861, "5, compute f(g(": 2862, "Find the derivative of f(x) = -5": 2863, "x^3 - 2x^2 + ": 2864, "2.  Answer: f'(x) = ": 2865, "4Ï, circumference = 4": 2866, "0x - ": 2867, "4x - 1": 2868, "4*cos(4x)": 2869, "83": 2870, "8 6.  ": 2871, "2.  4.  ": 2872, "x^3, â« -": 2873, " = 8x - ": 2874, "-10": 2875, "3x": 2876, "73": 2877, "] = 2*": 2878, " dx = 3": 2879, " 6.  x = 30Â° or x = 150Â°.# Trigonometry -- Practice ": 2880, "From 3": 2881, " a prime number? 6.  ": 2882, "1Ï, circumference = 2": 2883, "2 5.  ": 2884, "6 4.  ": 2885, "1.  ## Answer Key 1.  ": 2886, "2.  5.  ": 2887, "5.  3.  ": 2888, " 2.  What is ": 2889, "/3 2.  ": 2890, " and g(x) = 3x + ": 2891, "From 7": 2892, "From 8": 2893, "From 10": 2894, ").  2.  Given f(x) = ": 2895, " and height 13.  ": 2896, "  ## Definition Number theory is the study of the integers, especially divisibility, primes and modular arithmetic.  ## Rules gcd(a, b) is the largest integer dividing both a and b; lcm(a, b) = a*b / gcd(a, b).  An integer greater than 1 is prime when it has no positive divisors other than 1 and itself.  a mod m is the remainder of a divided by m.  ## Worked Examples 1.  Find lcm(": 2897, "0 4.  ": 2898, "3.  6.  ": 2899, "Find the derivative of f(x) = -3": 2900, ".  Solution: Find ": 2901, "2)!) = ": 2902, " a prime number? 3.  ": 2903, "4 of 3": 2904, " = 5x - ": 2905, "Compute 2": 2906, ").  3.  Given f(x) = ": 2907, ").  4.  Evaluate f(x) = ": 2908, " and height 11.  ": 2909, "4 3.  ": 2910, "9, compute f(g(": 2911, "2.  2.  ": 2912, "3.  ## Answer Key 1.  ": 2913, "4.  ## Answer Key 1.  ": 2914, "From 6": 2915, "Ï 2.  area = ": 2916, "1 or x = -": 2917, "6, compute f(g(": 2918, "8 5.  ": 2919, "10.  Answer: ": 2920, " and height 7.  ": 2921, "  ## Answer Key 1.  1/6 2.  ": 2922, "Solution: Find two numbers that add to ": 2923, "2 3.  ": 2924, "3x + 2": 2925, "6 6.  ": 2926, "4.  3.  ": 2927, " = 20": 2928, ").  5.  Evaluate f(x) = ": 2929, "2 6.  ": 2930, "2 (": 2931, "4 5.  ": 2932, "1/5": 2933, " = 2x - ": 2934, "% of 50": 2935, "A circle has radius 8.  ": 2936, " = 4*": 2937, "x from both sides: (2 - ": 2938, " a prime number?  ## Answer Key 1.  ": 2939, "Solution: Find two numbers that add to -": 2940, " is divisible by 2 (": 2941, "1x^2 + ": 2942, "Find its area.  ## Answer Key 1.  area = ": 2943, "Expand (4x - ": 2944, ", perimeter = 5": 2945, "3x^(": 2946, "6 3.  ": 2947, "8, compute f(g(": 2948, "x + 5": 2949, "Ï 3.  area = ": 2950, "  ## Exercises 1.  Solve x^2 + ": 2951, " = -3": 2952, "] = 5*": 2953, "Expand (2x - ": 2954, "Find the exact value of cos(45Â°": 2955, ").  2.  Evaluate f(x) = ": 2956, " a prime number? 4.  ": 2957, "x^2 + C.  Answer: ": 2958, "3 - 1) = ": 2959, "x^3.  Solution: By the power rule, d/dx[": 2960, "  ## Definition Number theory is the study of the integers, especially divisibility, primes and modular arithmetic.  ## Rules gcd(a, b) is the largest integer dividing both a and b; lcm(a, b) = a*b / gcd(a, b).  An integer greater than 1 is prime when it has no positive divisors other than 1 and itself.  a mod m is the remainder of a divided by m.  ## Worked Examples 1.  Is ": 2961, "3x^(3 - 1) = ": 2962, "3 4.  ": 2963, "6x^1": 2964, "79": 2965, "1.  Then (": 2966, "1.  Solution: Subtract ": 2967, "4.  5.  ": 2968, "5.  4.  ": 2969, " = -2": 2970, " = 3x - ": 2971, "Expand (5x - ": 2972, "11x + 2": 2973, ").  6.  Evaluate f(x) = ": 2974, "  ## Definition Integration is the inverse of differentiation.  The indefinite integral â« f(x) dx is a family of antiderivatives differing by a constant C.  ## Rules Power rule for integration: â« x^n dx = x^(n+1)/(n+1) + C for n â  -1.  A definite integral â« from a to b f(x) dx equals F(b) - F(a) for any antiderivative F.  ## Worked Examples 1.  Evaluate the indefinite integral â« (": 2975, "^3/3 - 3*": 2976, "x^2 dx = [3x^3": 2977, "Find the exact value of cos(30Â°": 2978, "x^2 dx = [3x^3/3] from ": 2979, "4 of 1": 2980, "x^3.  Answer: f'(x) = ": 2981, "5.  2.  ": 2982, " = 2x + ": 2983, "Expand (5x + ": 2984, "From 5": 2985, "A circle has radius 9.  ": 2986, ").  4.  Given f(x) = ": 2987, "  ## Definition Number theory is the study of the integers, especially divisibility, primes and modular arithmetic.  ## Rules gcd(a, b) is the largest integer dividing both a and b; lcm(a, b) = a*b / gcd(a, b).  An integer greater than 1 is prime when it has no positive divisors other than 1 and itself.  a mod m is the remainder of a divided by m.  ## Worked Examples 1.  Find gcd(": 2988, "Find the exact value of tan(90Â°": 2989, "0)": 2990, "3 3.  ": 2991, "3, compute f(g(": 2992, "6 5.  ": 2993, "7 or x = -": 2994, "89": 2995, " = 15": 2996, "5.  5.  ": 2997, "Expand (3x + ": 2998, "A circle has radius 5.  ": 2999, "Find the exact value of sin(60Â°": 3000, "Find its area and circumference (leave answers in terms of Ï).  ## Answer Key 1.  area = ": 3001, "] = 1*": 3002, "x^2, â« ": 3003, "4.  Then (": 3004, "4.  Solution: Subtract ": 3005, "  ## Exercises 1.  Evaluate the indefinite integral â« (": 3006, " = 14": 3007, "Find the exact value of tan(60Â°": 3008, "3)x + ": 3009, "A circle has radius 4.  ": 3010, " mod 7": 3011, ").  6.  Given f(x) = ": 3012, "x from both sides: (6 - ": 3013, "4  ## Exercises 1.  ": 3014, "5/2": 3015, "7, compute f(g(": 3016, "5.  Then (": 3017, "5.  Solution: Subtract ": 3018, "Ï 6.  area = ": 3019, "From 2": 3020, "Ï, circumference = 12": 3021, "A circle has radius 3.  ": 3022, ").  3.  Evaluate f(x) = ": 3023, "x from both sides: (7 - ": 3024, "36Ï, circumference = 12": 3025, "Find the exact value of sin(45Â°": 3026, "Find the exact value of sin(90Â°": 3027, ") = 1.  Answer: 1 2.  ": 3028, "4 of 4": 3029, "6 of 3": 3030, "94": 3031, "4.  6.  ": 3032, "5.  6.  ": 3033, " = 0.  Answer: ": 3034, "â3/3": 3035, "From 4": 3036, "x from both sides: (3 - ": 3037, "x from both sides: (5 - ": 3038, "x from both sides: (9 - ": 3039, "Evaluate the definite integral â« from 1 to 2": 3040, "Find the exact value of cos(60Â°": 3041, "Find the exact value of cos(90Â°": 3042, "Find the exact value of tan(30Â°": 3043, "92": 3044, " = 3x + ": 3045, "no 6.  ": 3046, " a prime number? 2.  ": 3047, "Find the exact value of tan(45Â°": 3048, "3 5.  ": 3049, "3 of 1": 3050, "41": 3051, "87": 3052, "x^2, â« -": 3053, "Ï 4.  area = ": 3054, "Expand (1x - ": 3055, " = 7x + ": 3056, " a prime number? 5.  ": 3057, ", so f'(x) = -": 3058, ") = 1.  Answer: 1  ## Exercises 1.  ": 3059, "Evaluate the indefinite integral â« (-2x^2 - ": 3060, "4 of 2": 3061, "6 or x = -": 3062, "8 3.  ": 3063, "93": 3064, " = 5x + ": 3065, "1.  3.  ": 3066, "2.  3.  ": 3067, ") = 3": 3068, "^2 = 1/": 3069, "Expand (3x - ": 3070, "1/6 5.  ": 3071, "Find the exact value of sin(30Â°": 3072, "A triangle has base 5": 3073, "2)x + ": 3074, ").  5.  Given f(x) = ": 3075, "A fair coin is flipped 2 times.  What is the probability of 2 heads in a row?    Solution: Each flip has probability 1/2, so P = (1/2)": 3076, "^2 = 1/4.  Answer: ": 3077, "A fair coin is flipped 2 times.  What is the probability of 2 heads in a row?    Solution: Each flip has probability 1/2, so P = (1/2)^2 = 1/4.  Answer: ": 3078, "0 5.  ": 3079, "2x - 1": 3080, "2x + 1": 3081, "51": 3082, "3.  4.  ": 3083, "3.  5.  ": 3084, "Ï 5.  area = ": 3085, "-2)": 3086, "*cos(1x).  Answer: f'(x) = ": 3087, "*sin(1x).  Solution: By the chain rule, d/dx[": 3088, "/100) * 100": 3089, "1 + 1) + C": 3090, "1 + 1) x^(": 3091, "4 or x = ": 3092, "4x + 2": 3093, "86": 3094, "8 4.  ": 3095, ") = 7*": 3096, "16x^3": 3097, "Expand (4x + ": 3098, "Expand (2x + ": 3099, "A circle has radius 1.  ": 3100, " mod 8": 3101, "x^1 dx.  Solution: â« ": 3102, "x^2 - 3 + C": 3103, "1 + 1) x^(1 + 1) + C": 3104, "95": 3105, "1.  6.  ": 3106, "4.  2.  ": 3107, "6.  2.  ": 3108, "x = -3": 3109, "12 2.  ": 3110, " = 1x + ": 3111, "x^3 - 5x^2 + ": 3112, "A circle has radius 7.  ": 3113, "Find its area and perimeter.  ## Answer Key 1.  area = ": 3114, "A rectangle has width 4": 3115, ", compute f(g(-8)": 3116, "no.# Number Theory -- Practice ": 3117, "Evaluate the indefinite integral â« (-1x^2 - ": 3118, "2x^(": 3119, "3 + C": 3120, "4 + ": 3121, "4, compute f(g(": 3122, "61": 3123, "1/8 2.  ": 3124, "  ## Exercises 1.  Find gcd(": 3125, " = -4": 3126, "18x^2": 3127, "2x - 8": 3128, "4)x + ": 3129, "Find the derivative of f(x) = 3x^2.  ": 3130, "2 - 1) = ": 3131, " distinct items, how many subsets of size 2 exist? 3.  ": 3132, "Evaluate the indefinite integral â« (-4x^2 + ": 3133, ", so it is not prime.  Answer: no 2.  ": 3134, "2x^(2 - 1) = ": 3135, "1^3/3": 3136, "2x + 2": 3137, "5/3": 3138, "5 or x = -": 3139, "6x^2": 3140, "7 or x = ": 3141, "99": 3142, " = 5.  Answer: ": 3143, "x^2.  Answer: f'(x) = ": 3144, "2.  6.  ": 3145, "x = -2": 3146, "no 3.  ": 3147, " at x = 10": 3148, "x from both sides: (4 - ": 3149, ", compute f(g(-9)": 3150, "3x^2 + (": 3151, "x^2 dx.  Solution: â« from 1 to ": 3152, "0 3.  ": 3153, "3 of 3": 3154, "4x^2": 3155, "5x - 1": 3156, "7 3.  ": 3157, "8 + ": 3158, " = 4x + ": 3159, "1/4 2.  ": 3160, "A circle has radius 2.  ": 3161, "x from both sides: (8 - ": 3162, "*cos(2x).  Answer: f'(x) = ": 3163, " distinct items, how many subsets of size 2 exist? 4.  ": 3164, "*sin(2x).  Solution: By the chain rule, d/dx[": 3165, "/-2": 3166, "3 = 1/": 3167, "3 of 4": 3168, "6 + ": 3169, "8x + 1": 3170, "8x^1": 3171, "3.  Then (": 3172, "3.  Solution: Subtract ": 3173, "  ## Exercises 1.  Find lcm(": 3174, ", so x = 3": 3175, " dx = 2": 3176, "4x - 5": 3177, "Find the derivative of f(x) = 4x^2.  ": 3178, "Solve x^2 - 1x - ": 3179, "  ## Definition Algebra generalizes arithmetic by using symbols, typically letters, to represent numbers that may be unknown or variable.  ## Rules The distributive law a(b + c) = ab + ac lets you expand products.  To factor x^2 + px + q, find two numbers that add to p and multiply to q.  A quadratic x^2 + px + q = 0 with roots r1 and r2 satisfies r1 + r2 = -p and r1*r2 = q.  ## Worked Examples 1.  Factor x^2 + ": 3180, "*sin(3x).  Solution: By the chain rule, d/dx[": 3181, "x^5 + C": 3182, "A fair coin is flipped 3 times.  What is the probability of 3 heads in a row?    Solution: Each flip has probability 1/2, so P = (1/2)^": 3183, ").  Solution: The standard exact value is tan(": 3184, "3 = 1/8.  Answer: ": 3185, "A fair coin is flipped 3 times.  What is the probability of 3 heads in a row?    Solution: Each flip has probability 1/2, so P = (1/2)^3 = 1/8.  Answer: ": 3186, "/18": 3187, "4 + 1) + C": 3188, "4 + 1) x^(": 3189, "97": 3190, " = 3.  Answer: ": 3191, " = 4.  Answer: ": 3192, "200": 3193, "20x^3": 3194, "2x - 3": 3195, "x^4 dx.  Solution: â« ": 3196, " at x = 7": 3197, " = 6x + ": 3198, "24x^3": 3199, " at x = -9": 3200, " and height 15.  ": 3201, ", compute f(g(-1)": 3202, "  ## Definition Arithmetic is the study of numbers and the basic operations performed on them: addition, subtraction, multiplication and division.  ## Rules Add and subtract by aligning place values.  Multiply digit by digit and add partial products.  A fraction a/b is in lowest terms when gcd(a, b) = 1.  A percentage p% is the fraction p/100.  ## Worked Examples 1.  Compute ": 3203, "4 + 1) x^(4 + 1) + C": 3204, "4 6.  ": 3205, "6 or x = ": 3206, "8 or x = -": 3207, " = 6.  Answer: ": 3208, "x = 2": 3209, ") = 8*": 3210, "  ## Exercises 1.  Find the derivative of f(x) = 2": 3211, "A triangle has base 11": 3212, " mod 10": 3213, " at x = 0": 3214, "  ## Definition Algebra generalizes arithmetic by using symbols, typically letters, to represent numbers that may be unknown or variable.  ## Rules The distributive law a(b + c) = ab + ac lets you expand products.  To factor x^2 + px + q, find two numbers that add to p and multiply to q.  A quadratic x^2 + px + q = 0 with roots r1 and r2 satisfies r1 + r2 = -p and r1*r2 = q.  ## Worked Examples 1.  Factor x^2 - ": 3215, "f'(x) = 12x^3": 3216, "Evaluate the indefinite integral â« (-4x^2 - ": 3217, "1 or x = ": 3218, "1 = 1/": 3219, "2*cos(1x)": 3220, "31": 3221, "5 6.  ": 3222, ") = 9*": 3223, "1/2 4.  ": 3224, " = 0.  ## Answer Key 1.  ": 3225, ") = â3": 3226, "x^4 + C 2.  ": 3227, "no 4.  ": 3228, "f'(x) = -12x^2 + ": 3229, "A fair coin is flipped 1 times.  What is the probability of 1 heads in a row?    Solution: Each flip has probability 1/2, so P = (1/2)^": 3230, "^3/3 - 4*": 3231, "x^2 dx = [4x^3": 3232, "x^3 - 3/2x^2 + ": 3233, "undefined ": 3234, "1 = 1/2.  Answer: ": 3235, "A fair coin is flipped 1 times.  What is the probability of 1 heads in a row?    Solution: Each flip has probability 1/2, so P = (1/2)^1 = 1/2.  Answer: ": 3236, "x^2 dx = [4x^3/3] from ": 3237, "/-1": 3238, "3*cos(1x)": 3239, "5 of 4": 3240, " = 2.  Answer: ": 3241, "3.  3.  ": 3242, "12x^2, d/dx[": 3243, "] = 6": 3244, "A triangle has base 10": 3245, " at x = -7": 3246, " at x = -10": 3247, "  ## Definition The derivative f'(x) measures the rate of change of f at x; it is the slope of the tangent line to the graph of f.  ## Rules Power rule: d/dx[x^n] = n*x^(n-1).  Constants factor out: d/dx[a*f(x)] = a*f'(x).  The derivative of sin(kx) is k*cos(kx) by the chain rule.  ## Worked Examples 1.  Find the derivative of f(x) = 4": 3248, "2x^2 + (": 3249, "f'(x) = 12*cos(3x)": 3250, "x^3.  2.  ": 3251, ").  Solution: Apply FOIL: 3*": 3252, ").  Solution: Apply FOIL: 2*": 3253, ").  Solution: The standard exact value is cos(": 3254, "1x - 1": 3255, "2x^1": 3256, "3 6.  ": 3257, "3 + 1) + C": 3258, "3 + 1) x^(": 3259, "5 3.  ": 3260, "5 or x = ": 3261, "10x, d/dx[": 3262, "x^3 + C.  Answer: ": 3263, "x^2 - 4 + C": 3264, "1)x + ": 3265, "A rectangle has width 12": 3266, " mod 9": 3267, "x^4 + C.  Answer: ": 3268, ", compute f(g(-3)": 3269, " = 9x + ": 3270, "x^2 + C.# Integration -- Practice ": 3271, "f'(x) = 12x^2": 3272, " distinct items, how many subsets of size 1 exist? 2.  ": 3273, " distinct items, how many subsets of size 1 exist? 5.  ": 3274, "Evaluate the indefinite integral â« (-1x^2 + ": 3275, "3 + 1) x^(3 + 1) + C": 3276, "4*cos(1x)": 3277, "7 5.  ": 3278, "9x + 18": 3279, "] = 3": 3280, " 2.  Compute ": 3281, ") = 6*": 3282, "2x - 2": 3283, "2.  Answer: area = ": 3284, " at x = 6.  ": 3285, "x from both sides: (1 - ": 3286, ", compute f(g(-4)": 3287, ", compute f(g(-7)": 3288, "f'(x) = -6x^2 + ": 3289, "  ## Definition The derivative f'(x) measures the rate of change of f at x; it is the slope of the tangent line to the graph of f.  ## Rules Power rule: d/dx[x^n] = n*x^(n-1).  Constants factor out: d/dx[a*f(x)] = a*f'(x).  The derivative of sin(kx) is k*cos(kx) by the chain rule.  ## Worked Examples 1.  Find the derivative of f(x) = 2": 3290, " distinct items, how many subsets of size 2 exist? 5.  ": 3291, " distinct items, how many subsets of size 2 exist? 6.  ": 3292, " distinct items, how many subsets of size 1 exist? 6.  ": 3293, ").  Solution: Apply FOIL: 4*": 3294, "1x^3/3] from ": 3295, "^3/3 - 1*": 3296, "x^2 dx = [1x^3/3] from ": 3297, "0 6.  ": 3298, "2 + 1) + C": 3299, "2 + 1) x^(": 3300, "5 of 3": 3301, "71": 3302, "8x^2 - ": 3303, "x^1.  Answer: f'(x) = ": 3304, "1.  4.  ": 3305, "4.  Solution: ": 3306, "6.  Then (": 3307, "6.  Solution: Subtract ": 3308, "10 - ": 3309, "/3 3.  ": 3310, " = 36": 3311, "] = 4": 3312, "4x - 2": 3313, "A circle has radius 6.  ": 3314, "A triangle has base 2": 3315, " at x = 8": 3316, " at x = -8": 3317, " = 8x + ": 3318, ", compute f(g(-6)": 3319, "Find the derivative of f(x) = 4x^4.  ": 3320, "f'(x) = -12x^2 - ": 3321, "  ## Definition Algebra generalizes arithmetic by using symbols, typically letters, to represent numbers that may be unknown or variable.  ## Rules The distributive law a(b + c) = ab + ac lets you expand products.  To factor x^2 + px + q, find two numbers that add to p and multiply to q.  A quadratic x^2 + px + q = 0 with roots r1 and r2 satisfies r1 + r2 = -p and r1*r2 = q.  ## Worked Examples 1.  Solve x^2 + ": 3322, "  ## Definition The derivative f'(x) measures the rate of change of f at x; it is the slope of the tangent line to the graph of f.  ## Rules Power rule: d/dx[x^n] = n*x^(n-1).  Constants factor out: d/dx[a*f(x)] = a*f'(x).  The derivative of sin(kx) is k*cos(kx) by the chain rule.  ## Worked Examples 1.  Find the derivative of f(x) = 5": 3323, " distinct items, how many subsets of size 1 exist? 3.  ": 3324, "9x + 20": 3325, "Find its area and perimeter.  Solution: Area = 1": 3326, "Evaluate the indefinite integral â« (-2x^2 + ": 3327, ", so it is not prime.  Answer: no": 3328, "2 + 1) x^(2 + 1) + C": 3329, "2 + ": 3330, "3 + ": 3331, "3^3/3": 3332, "5*cos(1x)": 3333, "8 or x = ": 3334, "8*cos(2x)": 3335, " = 1.  Answer: ": 3336, ": 7": 3337, ": 8": 3338, "1.  5.  ": 3339, "1/2  ## Exercises 1.  ": 3340, "x^2 - 1 + C": 3341, "  ## Exercises 1.  Factor x^2 - ": 3342, "15x^2": 3343, " dx = 4": 3344, "Expand (1x + ": 3345, "Evaluate the indefinite integral â« (2x^2 + ": 3346, "A triangle has base 14": 3347, "5x + 6": 3348, ").  5.  Is ": 3349, " at x = -6.  ": 3350, ", compute f(g(-10)": 3351, "4x^2 + (": 3352, "x^2 dx.  Solution: â« from 3 to ": 3353, "/-4": 3354, "0) * (": 3355, "1 + ": 3356, "2 and multiply to -": 3357, "3/4": 3358, "3 of 2": 3359, "3x - 18": 3360, "7 + ": 3361, "9 + ": 3362, ".  They are ": 3363, "2.  Then (": 3364, "2.  Solution: Subtract ": 3365, "4.  Solution: Differentiate term by term: d/dx[": 3366, "12x + ": 3367, " = 30": 3368, "x^3 + 1": 3369, "x^3 + 3x^2 + ": 3370, "3x - 10": 3371, "no 5.  ": 3372, "5)x + ": 3373, "6x - 7": 3374, "9x + 8": 3375, "x^3 - 1/2x^2 + ": 3376, "2 + C 2.  ": 3377, "4x + 1": 3378, "4*cos(2x)": 3379, "82": 3380, "85": 3381, "8*cos(4x)": 3382, "x = 0": 3383, "1.  2.  ": 3384, "10*cos(2x)": 3385, "  ## Exercises 1.  Find the derivative of f(x) = 1": 3386, "15*cos(3x)": 3387, " dx = 0": 3388, "Evaluate the indefinite integral â« (2x^2 - ": 3389, "/(1 + 1) x^(1 + 1) + C": 3390, "f'(x) = 12x^2 - ": 3391, "6x + 5": 3392, "*sin(4x).  Solution: By the chain rule, d/dx[": 3393, "7.  Answer: x = -": 3394, "-1/3": 3395, "6 of 2": 3396, " 6.  1/2": 3397, "12x^": 3398, "] = 6*": 3399, "4x - 3": 3400, "A rectangle has width 9": 3401, "A triangle has base 7": 3402, "11x + ": 3403, "f'(x) = -15x^2 + ": 3404, "  ## Definition The derivative f'(x) measures the rate of change of f at x; it is the slope of the tangent line to the graph of f.  ## Rules Power rule: d/dx[x^n] = n*x^(n-1).  Constants factor out: d/dx[a*f(x)] = a*f'(x).  The derivative of sin(kx) is k*cos(kx) by the chain rule.  ## Worked Examples 1.  Find the derivative of f(x) = 3": 3405, "6x + 8": 3406, "1x + 2": 3407, "1 and multiply to -": 3408, "2^3/3": 3409, "4x^1": 3410, "5 5.  ": 3411, "5 4.  ": 3412, "91": 3413, "9 6.  ": 3414, "ed": 3415, "x = -1": 3416, "  ## Exercises 1.  Is ": 3417, " = -5": 3418, "x^3 + 3x^2 - ": 3419, "Evaluate the indefinite integral â« (3x^2 + ": 3420, "13x + ": 3421, "A rectangle has width 15": 3422, "6.  Answer: x = -": 3423, "/(4 + 1) x^(4 + 1) + C": 3424, "/(3 + 1) x^(3 + 1) + C": 3425, ").  Solution: Apply FOIL: 5*": 3426, "x^2 dx.  Solution: â« from 2 to ": 3427, "undefined": 3428, "1x^2 + (": 3429, "6 of 4": 3430, "6 of 1": 3431, "7 4.  ": 3432, "81": 3433, "9 3.  ": 3434, "3.  Solution: Differentiate term by term: d/dx[": 3435, " 2.  Evaluate f(x) = ": 3436, " 2.  Find the derivative of f(x) = 2": 3437, "10x + ": 3438, "/3 5.  ": 3439, "/3 6.  ": 3440, "x^3 - 4x^2 + ": 3441, "x^3 - 5x^2 - ": 3442, "x^3 + 5x^2 + ": 3443, "16*cos(4x)": 3444, "A rectangle has width 10": 3445, "4x + 3": 3446, ").  2.  Find gcd(": 3447, " at x = 9": 3448, ").  5.  Find lcm(": 3449, "x^1 dx.  ## Answer Key 1.  ": 3450, "Factor x^2 + 1x - ": 3451, "/(2 + 1) x^(2 + 1) + C": 3452, "*cos(3x).  Answer: f'(x) = ": 3453, "f'(x) = 12x^1": 3454, "x^3.  5.  ": 3455, ").  Solution: The standard exact value is sin(": 3456, "Find the derivative of f(x) = 6x^2.  ": 3457, "3 = 6": 3458, "5x + 2": 3459, "9x^2, d/dx[": 3460, ".  Then f(": 3461, "1.  Solution: Differentiate term by term: d/dx[": 3462, "3.  2.  ": 3463, "5.  Solution: ": 3464, "5.  Then f(": 3465, "5.  Solution: Differentiate term by term: d/dx[": 3466, "x^2 - 2 + C": 3467, "  ## Exercises 1.  Find the derivative of f(x) = 3": 3468, "x^3 + x^2 + ": 3469, "Evaluate the indefinite integral â« (x^2 + ": 3470, "Evaluate the indefinite integral â« (-3x^2 + ": 3471, "400": 3472, ", perimeter = 40": 3473, "A rectangle has width 2": 3474, "A rectangle has width 13": 3475, "A triangle has base 6": 3476, "A triangle has base 9": 3477, ", compute f(g(-5)": 3478, "4.  Answer: x = -": 3479, "Factor x^2 - 1x - ": 3480, "7x + 6": 3481, "^3/3 - 2*": 3482, "x^2 dx = [2x^3": 3483, "Evaluate the indefinite integral â« 3x^3": 3484, "x^2 + 3 + C": 3485, "x^2 dx = [2x^3/3] from ": 3486, "112": 3487, "1 + C 2.  ": 3488, "2x^2 dx = ": 3489, "5 of 2": 3490, "6x - 1": 3491, "] = 2": 3492, "x = 4": 3493, "2.  Solution: Differentiate term by term: d/dx[": 3494, " 2.  Find the derivative of f(x) = 3": 3495, "10x^1": 3496, "1/2 3.  ": 3497, "  ## Exercises 1.  Find the derivative of f(x) = 5": 3498, "/3 4.  ": 3499, "20*cos(4x)": 3500, "Evaluate the indefinite integral â« (-3x^2 - ": 3501, "Evaluate the indefinite integral â« 2x^3": 3502, "A triangle has base 8": 3503, "3x - 4": 3504, ").  3.  Is ": 3505, "6.  Answer: area = ": 3506, " dx.  Solution: â« 2x^2 dx = ": 3507, " distinct items, how many subsets of size 2 exist? 2.  ": 3508, " + 9*": 3509, "90Â°) = ": 3510, ").  Solution: Apply FOIL: 1*": 3511, "4 + C 2.  ": 3512, "5x^3": 3513, "6*cos(3x)": 3514, "9x^2": 3515, "x = 6": 3516, " 2.  Find the derivative of f(x) = 5": 3517, "x^3 + C 2.  ": 3518, " 6.  -1": 3519, " = 24": 3520, " = 25": 3521, "^2 = 4": 3522, "1x - 2": 3523, "A triangle has base 4": 3524, ").  2.  Find lcm(": 3525, ").  2.  Is ": 3526, "x^2 + C 4.  ": 3527, "f'(x) = -9x^2 + ": 3528, "f'(x) = 12*cos(4x)": 3529, " + 7*": 3530, "A fair coin is flipped 1 times.  What is the probability of 1 heads in a row? 2.  ": 3531, "A fair coin is flipped 1 times.  What is the probability of 1 heads in a row? 4.  ": 3532, " and give the answer in lowest terms.  6.  What is ": 3533, ".  Solution: Find two numbers that add to -": 3534, "/-3": 3535, "5 + ": 3536, "5).  Answer: ": 3537, "6*cos(2x)": 3538, "8x^3": 3539, "9 5.  ": 3540, "9*cos(3x)": 3541, ": 6": 3542, "x^2 dx.  Solution: â« ": 3543, "6.  Solution: ": 3544, "1/(": 3545, " 6.  1/6.# Probability -- Practice ": 3546, "  ## Exercises 1.  Solve x^2 - ": 3547, "15x^2, d/dx[": 3548, "20x^2 - ": 3549, "x^3 - 3x^2 - ": 3550, "x^3 + 5x^2 - ": 3551, "A rectangle has width 3": 3552, "A rectangle has width 5": 3553, "A triangle has base 3": 3554, "3x - 28": 3555, "2x + 5": 3556, ").  2.  Solve sin(x) = 1/2 for x in [0Â°, 360Â°].  3.  ": 3557, ").  4.  Solve sin(x) = 1/2 for x in [0Â°, 360Â°].  5.  ": 3558, "28 2.  ": 3559, "Find the derivative of f(x) = 4*sin(3x)": 3560, "Find the derivative of f(x) = 1x^2.  ": 3561, "*sin(1x).  2.  ": 3562, "Evaluate the definite integral â« from 2 to 2": 3563, "% of 400?    Solution: ": 3564, "% of 400 = (": 3565, ".  Solution: Find two numbers that add to ": 3566, "-9*": 3567, "5x + 1": 3568, " + 1/": 3569, ": 2": 3570, "1.  3.  Solve for x: ": 3571, "2.  They are ": 3572, "3.  Solution: ": 3573, "6.  They are ": 3574, "1/2 5.  ": 3575, "1)x = -": 3576, ".  ## Answer Key 1.  1 2.  ": 3577, " = -6": 3578, "x^3 - 3x^2 + ": 3579, "A rectangle has width 7": 3580, "5x + 4": 3581, "5x - 6": 3582, ").  4.  Find lcm(": 3583, ").  6.  Find lcm(": 3584, "Factor x^2 + 0x - ": 3585, "Find the derivative of f(x) = 5x^4.  ": 3586, "f'(x) = -15x^2 - ": 3587, "f'(x) = -9x^2 - ": 3588, "  ## Definition Algebra generalizes arithmetic by using symbols, typically letters, to represent numbers that may be unknown or variable.  ## Rules The distributive law a(b + c) = ab + ac lets you expand products.  To factor x^2 + px + q, find two numbers that add to p and multiply to q.  A quadratic x^2 + px + q = 0 with roots r1 and r2 satisfies r1 + r2 = -p and r1*r2 = q.  ## Worked Examples 1.  Solve x^2 - ": 3589, "f'(x) = 12x^2 + ": 3590, "7.  Then (": 3591, "1/4 3.  ": 3592, "9.  Then (": 3593, "0^3/3": 3594, "2, compute f(g(": 3595, "3x - 1": 3596, "3 and multiply to -": 3597, "2.  2.  Solve for x: ": 3598, "4.  2.  Solve for x: ": 3599, "5.  4.  Solve for x: ": 3600, " 2.  Given f(x) = ": 3601, " 2.  Find the derivative of f(x) = 4": 3602, ") = 2": 3603, "Ï 4.  ": 3604, "20x^2 + ": 3605, "30Â°) = â3": 3606, "5x - 4": 3607, ").  5.  Solve sin(x) = 1/2 for x in [0Â°, 360Â°].  6.  ": 3608, "f'(x) = -6x^2 - ": 3609, "Find the derivative of f(x) = 1*sin(1x)": 3610, "*cos(4x).  Answer: f'(x) = ": 3611, " + 6*": 3612, "1/8.# Probability -- Practice ": 3613, "x^2 dx.  Solution: â« from 0 to ": 3614, "7x - 8": 3615, "/5x^5 + C 2.  ": 3616, "A fair coin is flipped 2 times.  What is the probability of 2 heads in a row? 3.  ": 3617, "5x^2 + (": 3618, " 5.  1/6 6.  1/6.# Probability -- Practice ": 3619, " and give the answer in lowest terms.  3.  What is ": 3620, "% of 50?    Solution: ": 3621, "% of 50 = (": 3622, "2 = 4": 3623, "2 or x = -": 3624, "21 2.  ": 3625, "x = 5": 3626, "2.  Answer: -": 3627, "3.  5.  Solve for x: ": 3628, "6.  Answer: -": 3629, "5.  3.  Solve for x: ": 3630, "10 5.  ": 3631, "Ï 3.  ": 3632, "120": 3633, "12x + 3": 3634, "-1*": 3635, "x^3 + 4x^2 + ": 3636, "14x + ": 3637, "4x - 9": 3638, "Evaluate the indefinite integral â« (x^2 - ": 3639, " = (7*": 3640, "A rectangle has width 14": 3641, "A rectangle has width 11": 3642, "A triangle has base 13": 3643, "3x - 40": 3644, ").  4.  Find gcd(": 3645, ").  6.  Find gcd(": 3646, ").  6.  Solve cos(x) = 1/2 for x in [0Â°, 360Â°].  ## Answer Key 1.  ": 3647, "800": 3648, "x^2 + C 3.  ": 3649, "x^2 + C 6.  ": 3650, "% of 100?    Solution: ": 3651, "% of 100 = (": 3652, "  ## Definition Arithmetic is the study of numbers and the basic operations performed on them: addition, subtraction, multiplication and division.  ## Rules Add and subtract by aligning place values.  Multiply digit by digit and add partial products.  A fraction a/b is in lowest terms when gcd(a, b) = 1.  A percentage p% is the fraction p/100.  ## Worked Examples 1.  Compute 7": 3653, "x^3.  4.  ": 3654, " distinct items, how many subsets of size 1 exist? 4.  ": 3655, "/5x^5 + C.  Answer: ": 3656, "A fair coin is flipped 3 times.  What is the probability of 3 heads in a row? 6.  ": 3657, "A fair coin is flipped 2 times.  What is the probability of 2 heads in a row? 5.  ": 3658, "Find the derivative of f(x) = 6x^4.  ": 3659, " and give the answer in lowest terms.  5.  What is ": 3660, "/2.  Answer: â3/2": 3661, "-1/3x^3 + ": 3662, "0, compute f(g(": 3663, "2/5x^5 + C": 3664, "4).  Answer: ": 3665, "5x": 3666, "8x^2 + ": 3667, ": 5": 3668, "1.  5.  Solve for x: ": 3669, "Ï 6.  ": 3670, "x = -9": 3671, "15 2.  ": 3672, " = -1.  Answer: ": 3673, "4x - 4": 3674, "Evaluate the indefinite integral â« 4x^3": 3675, "Find its area and perimeter.  ## Answer Key 1.  ": 3676, "A rectangle has width 6": 3677, "2x + 3": 3678, "1/3x^3, â« ": 3679, "x^2 + C 5.  ": 3680, "% of 1000?    Solution: ": 3681, "% of 1000 = (": 3682, "Find the derivative of f(x) = 1x^4.  ": 3683, "Find the derivative of f(x) = 1*sin(3x)": 3684, "8x + 7": 3685, "/100) * 400": 3686, " and give the answer in lowest terms.  4.  What is ": 3687, "Solve cos(x) = 1/2 for x in [0Â°, 360Â°].  3.  Solve sin(x) = 1/2 for x in [0Â°, 360Â°].  4.  ": 3688, "x = 60Â° or x = 300Â° 3.  x = 30Â° or x = 150Â° 4.  ": 3689, " = 0.  Answer: 0 2.  ": 3690, "/12": 3691, "1x^2 dx = ": 3692, "2) * (": 3693, "7 6.  ": 3694, "9 4.  ": 3695, "1.  Then f(": 3696, "3.  Answer: -": 3697, "10x^2 + ": 3698, "Ï  ## Exercises 1.  A circle has radius ": 3699, " = -7.  Answer: x = -": 3700, "A triangle has base 12": 3701, "4x + 5": 3702, "x^4 dx.  4.  ": 3703, "x^4 dx.  6.  ": 3704, ").  3.  Find lcm(": 3705, ").  4.  Is ": 3706, "Find the derivative of f(x) = 5*sin(2x)": 3707, " distinct items, how many subsets of size 1 exist?  ## Answer Key 1.  ": 3708, "9)x = -": 3709, "1/4 4.  ": 3710, "7x + 10": 3711, "1/8 4.  ": 3712, " = 10.  Answer: x = ": 3713, " and give the answer in lowest terms.  2.  What is ": 3714, "x^3 + 3/2x^2 + ": 3715, "Solve sin(x) = 1/2 for x in [0Â°, 360Â°].  Solution: sin(x) = 1/2 in [0Â°, 360Â°].  sin is positive in quadrants I and II: x = 30Â° and x = 180Â° - 30Â° = 150Â°.  Answer: x = 30Â° or x = 150Â°  ## Exercises 1.  Solve cos(x) = 1/2 for x in [0Â°, 360Â°].  2.  ": 3716, "Solve cos(x) = 1/2 for x in [0Â°, 360Â°].  5.  Solve cos(x) = 1/2 for x in [0Â°, 360Â°].  6.  ": 3717, "x = 60Â° or x = 300Â° 5.  x = 60Â° or x = 300Â°": 3718, "/14": 3719, "2 or x = ": 3720, "224": 3721, "4 = 8": 3722, "5 = 10": 3723, "6x + 1": 3724, "8x, d/dx[": 3725, "2.  Then f(": 3726, "4.  5.  Solve for x: ": 3727, "4.  4.  Solve for x: ": 3728, "5.  Solution: f(": 3729, " 2.  Solve x^2 + ": 3730, "1/2.  Answer: ": 3731, ") = 4": 3732, " = -6.  Answer: x = -": 3733, " = -4.  Answer: x = -": 3734, " dx = 1/(": 3735, ".  6.  Given f(x) = ": 3736, "Evaluate the indefinite integral â« (4x^2 - ": 3737, "Evaluate the indefinite integral â« 1x^3": 3738, "2x - 5": 3739, "Find the derivative of f(x) = 4*sin(2x)": 3740, "Find the derivative of f(x) = 5*sin(3x)": 3741, "4/3x^3 + C": 3742, ".# Algebra -- Practice 3": 3743, "8.  Answer: x = -": 3744, "1/4  ## Exercises 1.  ": 3745, ", perimeter = 34": 3746, "1x^3] = 3": 3747, "% of 200?    Solution: ": 3748, "% of 200 = (": 3749, "A fair coin is flipped 2 times.  What is the probability of 2 heads in a row? 4.  ": 3750, "2x^3 + C": 3751, "1/6 3.  1/6 4.  ": 3752, "x = 30Â° or x = 150Â° 3.  x = 60Â° or x = 300Â° 4.  ": 3753, "  ## Definition Trigonometry relates the angles and side ratios of right triangles through the functions sine, cosine and tangent.  ## Rules Standard exact values: sin(30Â°) = 1/2, cos(45Â°) = â2/2, tan(60Â°) = â3.  sin(x) is positive in quadrants I and II; cos(x) is positive in quadrants I and IV.  The Pythagorean identity states sin^2(Î¸) + cos^2(Î¸) = 1.  ## Worked Examples 1.  Solve cos(x) = 1/2 for x in [0Â°, 360Â°].  Solution: cos(x) = 1/2 in [0Â°, 360Â°].  cos is positive in quadrants I and IV: x = 60Â° and x = 360Â° - 60Â° = 300Â°.  Answer: x = 60Â° or x = 300Â° 2.  Solve cos(x) = 1/2 for x in [0Â°, 360Â°].  Solution: cos(x) = 1/2 in [0Â°, 360Â°].  cos is positive in quadrants I and IV: x = 60Â° and x = 360Â° - 60Â° = 300Â°.  Answer: x = 60Â° or x = 300Â°  ## Exercises 1.  ": 3754, "A fair coin is flipped 2 times.  What is the probability of 2 heads in a row?    Solution: Each flip has probability 1/2, so P = (1/2)^2 = 1/4.  Answer: 1/4  ## Exercises 1.  ": 3755, " = 3.  Answer: x = 3": 3756, "11x + 30": 3757, "1x^3] = 3x^2, d/dx[": 3758, "-7*": 3759, "/10": 3760, "5x^2": 3761, "7  ## Exercises 1.  Solve for x: ": 3762, "7.# Linear Equations -- Practice ": 3763, "8x - 1": 3764, "1.  6.  Solve for x: ": 3765, "3.  6.  Solve for x: ": 3766, "6.  3.  ": 3767, "6.  4.  ": 3768, "6.  6.  Solve for x: ": 3769, "x = -10": 3770, "/3.# Integration -- Practice ": 3771, " = 28": 3772, " = -8": 3773, "x^3 + x^2 - ": 3774, "Evaluate the indefinite integral â« (3x^2 - ": 3775, ".  5.  Given f(x) = ": 3776, ".  2.  Given f(x) = ": 3777, " = (8*": 3778, "2x + 4": 3779, ").  3.  Solve sin(x) = 1/2 for x in [0Â°, 360Â°].  4.  ": 3780, ").  6.  Solve sin(x) = 1/2 for x in [0Â°, 360Â°].  ## Answer Key 1.  ": 3781, "Find the derivative of f(x) = 4*sin(4x)": 3782, "Find the derivative of f(x) = 2*sin(1x)": 3783, ", so x = 0": 3784, "8.  Then (": 3785, " dx = -4/3": 3786, ".# Arithmetic -- Practice 3": 3787, "8x + 15": 3788, "8x + 12": 3789, "6 2.  Solve for x: ": 3790, " + C.  Answer: 1": 3791, ", perimeter = 30": 3792, "7x + 12": 3793, "A fair coin is flipped 1 times.  What is the probability of 1 heads in a row? 6.  ": 3794, "A fair coin is flipped 3 times.  What is the probability of 3 heads in a row? 5.  ": 3795, "A fair coin is flipped 3 times.  What is the probability of 3 heads in a row? 4.  ": 3796, ".  Answer: -4/3": 3797, " dx.  Solution: â« -1x^2": 3798, " dx.  Solution: â« -4x^2": 3799, "x; combine the terms: -4/3": 3800, "3/4x^4 + C": 3801, " dx.  Solution: â« -1x^2 dx = -": 3802, " dx.  Solution: â« -4x^2 dx = -4/3": 3803, "1x; combine the terms: ": 3804, "4.# Linear Equations -- Practice ": 3805, "4 and multiply to -": 3806, "] = 1": 3807, ": 4": 3808, ", 6": 3809, ", 18": 3810, "1.  2.  Solve for x: ": 3811, "1.  Solution: f(": 3812, "4.  Then f(": 3813, "6.  4.  Solve for x: ": 3814, "  ## Exercises 1.  Compute 9": 3815, "x = 3 or x = -": 3816, " = 13": 3817, ".  6.  Evaluate f(x) = ": 3818, "2x - 24": 3819, "4) dx.  5.  ": 3820, "1x - 6": 3821, "3x - 5": 3822, "x = 30Â° or x = 150Â° 6.  x = 60Â° or x = 300Â°.# Trigonometry -- Practice ": 3823, "x = 30Â° or x = 150Â° 6.  x = 30Â° or x = 150Â°.# Trigonometry -- Practice ": 3824, ").  6.  Is ": 3825, ").  5.  Find gcd(": 3826, "4.  Answer: area = ": 3827, "4 2.  Solve for x: ": 3828, ").  ## Answer Key 1.  x = 60Â° or x = 300Â° 2.  ": 3829, " * 7": 3830, "2/3x^3, â« -": 3831, ".# Differentiation -- Practice 3": 3832, "  ## Definition Arithmetic is the study of numbers and the basic operations performed on them: addition, subtraction, multiplication and division.  ## Rules Add and subtract by aligning place values.  Multiply digit by digit and add partial products.  A fraction a/b is in lowest terms when gcd(a, b) = 1.  A percentage p% is the fraction p/100.  ## Worked Examples 1.  Compute 8": 3833, "6x - 4": 3834, "x^3.  3.  ": 3835, "x^3.  6.  ": 3836, " and give the answer in lowest terms.  Solution: Using the common denominator 8*": 3837, " and give the answer in lowest terms.  Solution: Using the common denominator 9*": 3838, "1x^3, â« ": 3839, ".  Answer: -1": 3840, "% of 800?    Solution: ": 3841, "% of 800 = (": 3842, "Evaluate the indefinite integral â« 6x^3": 3843, "10 2.  Solve for x: ": 3844, "1x] = 1": 3845, " 6.  1.# Number Theory -- Practice ": 3846, " = 0.  Answer: 0": 3847, "-15": 3848, "-8*": 3849, "0 - ": 3850, "1x + 1": 3851, "1 dx = -": 3852, "216": 3853, "5x - 14": 3854, "6x + 2": 3855, "6/5x^5 + C": 3856, " = 1/2": 3857, "3.  3.  Solve for x: ": 3858, "6.  3.  Solve for x: ": 3859, "10x^2 - ": 3860, "1/2x^2, â« -": 3861, "  ## Exercises 1.  Factor x^2 + ": 3862, "1) dx.  5.  ": 3863, "/24": 3864, "4x - 32": 3865, ".  4.  Evaluate f(x) = ": 3866, ".  3.  Evaluate f(x) = ": 3867, "4) dx.  3.  ": 3868, "3)x = -": 3869, "A rectangle has width 8": 3870, "4x + 0": 3871, "2.  Answer: 2": 3872, "x^4 dx.  3.  ": 3873, "x^4 dx.  2.  ": 3874, " = 6x + 2": 3875, "1x + 9": 3876, "Find the derivative of f(x) = 4*sin(1x)": 3877, "Find the derivative of f(x) = 5*sin(1x)": 3878, "  ## Definition The derivative f'(x) measures the rate of change of f at x; it is the slope of the tangent line to the graph of f.  ## Rules Power rule: d/dx[x^n] = n*x^(n-1).  Constants factor out: d/dx[a*f(x)] = a*f'(x).  The derivative of sin(kx) is k*cos(kx) by the chain rule.  ## Worked Examples 1.  Find the derivative of f(x) = 1": 3879, "  ## Definition Probability measures the likelihood of an event as a number between 0 and 1, equal to favourable outcomes divided by equally likely outcomes.  ## Rules For equally likely outcomes, P(event) = favourable / total.  Independent events multiply: P(A and B) = P(A)*P(B).  The number of k-subsets of an n-set is the binomial coefficient C(n, k).  ## Worked Examples 1.  A fair coin is flipped 2 times.  What is the probability of 2 heads in a row?    Solution: Each flip has probability 1/2, so P = (1/2)^2 = 1/4.  Answer: ": 3880, ".  Solution: Subtract 1": 3881, "/100) * 50": 3882, " and height 6.  Find its area.  Solution: Area = (1/2)*": 3883, "â2/2 2.  ": 3884, "2x^2, â« ": 3885, "x^3 + 1/2x^2 + ": 3886, "1x dx = -": 3887, "Solve cos(x) = 1/2 for x in [0Â°, 360Â°].  3.  Solve cos(x) = 1/2 for x in [0Â°, 360Â°].  4.  ": 3888, "x = 60Â° or x = 300Â° 3.  x = 60Â° or x = 300Â° 4.  ": 3889, "1/5x^5 + C": 3890, "11x + 28": 3891, "A fair coin is flipped 1 times.  What is the probability of 1 heads in a row?    Solution: Each flip has probability 1/2, so P = (1/2)^1 = 1/2.  Answer: 1/2  ## Exercises 1.  ": 3892, "  ## Definition Probability measures the likelihood of an event as a number between 0 and 1, equal to favourable outcomes divided by equally likely outcomes.  ## Rules For equally likely outcomes, P(event) = favourable / total.  Independent events multiply: P(A and B) = P(A)*P(B).  The number of k-subsets of an n-set is the binomial coefficient C(n, k).  ## Worked Examples 1.  A fair coin is flipped 2 times.  What is the probability of 2 heads in a row?    Solution: Each flip has probability 1/2, so P = (1/2)^2 = 1/4.  Answer: 1/4 2.  ": 3893, "21, ": 3894, "2 dx = -": 3895, "2 5.  x = -": 3896, "2/2.  Answer: ": 3897, "3/5x^5 + C": 3898, "4 = -": 3899, "4^3/3": 3900, "4x^2 dx = ": 3901, "9x + 1": 3902, "9 and multiply to ": 3903, ", 14": 3904, "1.  Answer: -": 3905, "2.  4.  Solve for x: ": 3906, "4.  Answer: -": 3907, "6.  5.  ": 3908, "5.  5.  Solve for x: ": 3909, "5.  6.  Solve for x: ": 3910, "10 4.  ": 3911, "10.# Linear Equations -- Practice ": 3912, " 3.  1": 3913, " 5.  What is ": 3914, "  ## Exercises 1.  Compute 7": 3915, "12 = -": 3916, "1) dx.  4.  ": 3917, ", 30": 3918, " = -9.  Answer: ": 3919, "x^3 - 4x^2 - ": 3920, "45 2.  ": 3921, "2x - 15": 3922, "4) dx.  4.  ": 3923, "3) dx.  2.  ": 3924, "3x - 2": 3925, "-4x^3] = -": 3926, "2x + 8": 3927, "5x + 0": 3928, "x^1 dx.  4.  ": 3929, " = 64": 3930, "7)x = -": 3931, " = 8x - 1": 3932, " * 8": 3933, "1 2.  Solve for x: ": 3934, "-5x^2] = -": 3935, " dx = -3/2": 3936, "8x + 5": 3937, "1/4x^4 + C": 3938, ", perimeter = 36": 3939, "x^2 dx.  Solution: â« from 4 to ": 3940, "A fair coin is flipped 1 times.  What is the probability of 1 heads in a row? 5.  ": 3941, "/100) * 200": 3942, "3x^2 dx = -": 3943, " dx.  Solution: â« -3x^2 dx = -": 3944, "x; combine the terms: -1": 3945, "Solve sin(x) = 1/2 for x in [0Â°, 360Â°].  Solution: sin(x) = 1/2 in [0Â°, 360Â°].  sin is positive in quadrants I and II: x = 30Â° and x = 180Â° - 30Â° = 150Â°.  Answer: x = 30Â° or x = 150Â°  ## Exercises 1.  Solve sin(x) = 1/2 for x in [0Â°, 360Â°].  2.  ": 3946, "3x dx = -3/2": 3947, "/100) * 1000": 3948, "2 dx = -2": 3949, "-4x^3] = -12x^2, d/dx[": 3950, "-5x^2] = -10x, d/dx[": 3951, "*6": 3952, "1 and ": 3953, "2.# Linear Equations -- Practice ": 3954, "3x + 1": 3955, "3x^4": 3956, "4/5x^5 + C": 3957, "5/4": 3958, "x = 1": 3959, "1.  Solution: ": 3960, "3.  Then f(": 3961, "4.  They are ": 3962, "6.  Then f(": 3963, "6.  2.  Solve for x: ": 3964, "5.  2.  Solve for x: ": 3965, "1/100": 3966, " 3.  What is ": 3967, " 6.  What is ": 3968, "15 = -": 3969, "/3  ## Exercises 1.  ": 3970, " = 19": 3971, "-1x] = -": 3972, "x^3 + 4x^2 - ": 3973, "2x - 4": 3974, " = (5*": 3975, "1x - 3": 3976, "5x - 5": 3977, "5x - 7": 3978, ").  3.  Find gcd(": 3979, "x^1 dx.  3.  ": 3980, "8)x = -": 3981, " = 8.  Answer: x = ": 3982, "Find the derivative of f(x) = 5x^2.  ": 3983, "Find the derivative of f(x) = 3*sin(1x)": 3984, "Find the derivative of f(x) = 3*sin(4x)": 3985, " * 5": 3986, "Find the derivative of f(x) = 2*sin(4x)": 3987, " dx.  Solution: â« 1x^2 dx = ": 3988, "5.  Answer: x = -": 3989, "  ## Definition Probability measures the likelihood of an event as a number between 0 and 1, equal to favourable outcomes divided by equally likely outcomes.  ## Rules For equally likely outcomes, P(event) = favourable / total.  Independent events multiply: P(A and B) = P(A)*P(B).  The number of k-subsets of an n-set is the binomial coefficient C(n, k).  ## Worked Examples 1.  A fair coin is flipped 3 times.  What is the probability of 3 heads in a row?    Solution: Each flip has probability 1/2, so P = (1/2)^3 = 1/8.  Answer: ": 3990, "1/4.# Probability -- Practice ": 3991, " and give the answer in lowest terms.  Solution: Using the common denominator 4*": 3992, "1/8 3.  ": 3993, "1/8  ## Exercises 1.  ": 3994, "1x^3 + C": 3995, ".  Solution: Subtract 3": 3996, "A fair coin is flipped 3 times.  What is the probability of 3 heads in a row? 2.  ": 3997, ", perimeter = 42": 3998, "3x^2] = 6": 3999, " and give the answer in lowest terms.  2.  Compute ": 4000, "4x dx = ": 4001, "yes 2.  ": 4002, "A fair coin is flipped 3 times.  What is the probability of 3 heads in a row?    Solution: Each flip has probability 1/2, so P = (1/2)^3 = 1/8.  Answer: 1/8  ## Exercises 1.  ": 4003, "1/100) * ": 4004, "-1x] = -1": 4005, "  ## Definition Probability measures the likelihood of an event as a number between 0 and 1, equal to favourable outcomes divided by equally likely outcomes.  ## Rules For equally likely outcomes, P(event) = favourable / total.  Independent events multiply: P(A and B) = P(A)*P(B).  The number of k-subsets of an n-set is the binomial coefficient C(n, k).  ## Worked Examples 1.  A fair coin is flipped 3 times.  What is the probability of 3 heads in a row?    Solution: Each flip has probability 1/2, so P = (1/2)^3 = 1/8.  Answer: 1/8 2.  ": 4006, "3x^2] = 6x, d/dx[": 4007, "*8": 4008, "/-6": 4009, "3x^2 dx = ": 4010, "5, so f'(x) = ": 4011, "7).  Answer: ": 4012, "9 = -": 4013, "9.# Linear Equations -- Practice ": 4014, "9x + 14": 4015, "yes": 4016, "1.  4.  Solve for x: ": 4017, "2.  5.  Solve for x: ": 4018, "2.  6.  Solve for x: ": 4019, "x - 8": 4020, "4.  6.  Solve for x: ": 4021, "6.  6.  ": 4022, "10x + 1": 4023, " 3.  -1": 4024, "/3x^3 + C.  Answer: ": 4025, "Find its area.  ## Answer Key 1.  ": 4026, " = 3x + 1": 4027, "4x - 8": 4028, "2x - 7": 4029, " = (2*": 4030, "5x + 5": 4031, "5x - 2": 4032, "3x + 4": 4033, "3x + 6": 4034, "3x + 9": 4035, "x^1 dx.  6.  ": 4036, "x^1 dx.  2.  ": 4037, "1x + 0": 4038, " = 7.  Answer: ": 4039, " = 9.  Answer: ": 4040, "Find the derivative of f(x) = 3x^4.  ": 4041, "8 2.  Solve for x: ": 4042, "2/3x^3, â« ": 4043, " dx.  Solution: â« 3x^2 dx = ": 4044, " + C.  Answer: 2/3": 4045, " and give the answer in lowest terms.  Solution: Using the common denominator 5*": 4046, " and give the answer in lowest terms.  Solution: Using the common denominator 2*": 4047, ".  Solution: Subtract 4": 4048, "A fair coin is flipped 3 times.  What is the probability of 3 heads in a row? 3.  ": 4049, "/100) * 800": 4050, ".  Answer: -2/3": 4051, "Evaluate the definite integral â« from 0 to 1": 4052, " and height 8.  Find its area.  Solution: Area = (1/2)*": 4053, "1/3x^3 + 1/2": 4054, "2x^2 dx = -": 4055, " dx.  Solution: â« -2x^2 dx = -": 4056, "x; combine the terms: -2/3": 4057, " and give the answer in lowest terms.  4.  Compute ": 4058, "4x] = 4": 4059, "?  ## Answer Key 1.  1/6 2.  ": 4060, "x = 30Â° or x = 150Â° 5.  x = 60Â° or x = 300Â°": 4061, "Solve cos(x) = 1/2 for x in [0Â°, 360Â°].  5.  Solve sin(x) = 1/2 for x in [0Â°, 360Â°].  6.  ": 4062, "Find the exact value of tan(90Â°).  Solution: The standard exact value is tan(": 4063, "undefined.  Answer: ": 4064, "90Â°) = undefined.  Answer: ": 4065, "Find the exact value of tan(90Â°).  Solution: The standard exact value is tan(90Â°) = undefined.  Answer: ": 4066, "-12": 4067, "-20": 4068, "0; perimeter = 2*(": 4069, "2).  Answer: ": 4070, "3 dx = -": 4071, "3 dx = 3": 4072, "41, ": 4073, "4 dx = -": 4074, "6 = 2": 4075, "6x^4": 4076, "6 = 12": 4077, "7 = -": 4078, "7x + 1": 4079, "greater than 1": 4080, "les": 4081, "s th": 4082, " + 0": 4083, ": 3": 4084, "2.  Solution: f(": 4085, " and les": 4086, "5.  Answer: -": 4087, "Ï  ## Exercises 1.  A triangle has base ": 4088, "1/2x^4 + C": 4089, "an itself": 4090, " dx = 6": 4091, ".  3.  Given f(x) = ": 4092, "4)x = -": 4093, "4) dx.  ## Answer Key 1.  ": 4094, "40 2.  ": 4095, " = (3*": 4096, " = (6*": 4097, "1x - 5": 4098, "3x - 7": 4099, "2x + 0": 4100, "-3*": 4101, "x^4 dx.  ## Answer Key 1.  ": 4102, ").  5.  Solve cos(x) = 1/2 for x in [0Â°, 360Â°].  6.  ": 4103, " = 6x + 1": 4104, "6)x - ": 4105, " = 7x - 1": 4106, " = 5x + 2": 4107, "Find the derivative of f(x) = 5*sin(4x)": 4108, "Find the derivative of f(x) = 3*sin(2x)": 4109, "Find the derivative of f(x) = 2*sin(3x)": 4110, "  ## Definition Integration is the inverse of differentiation.  The indefinite integral â« f(x) dx is a family of antiderivatives differing by a constant C.  ## Rules Power rule for integration: â« x^n dx = x^(n+1)/(n+1) + C for n â  -1.  A definite integral â« from a to b f(x) dx equals F(b) - F(a) for any antiderivative F.  ## Worked Examples 1.  Evaluate the definite integral â« from 1 to ": 4111, "6x + 4": 4112, "  ## Definition Number theory is the study of the integers, especially divisibility, primes and modular arithmetic.  ## Rules gcd(a, b) is the largest integer dividing both a and b; lcm(a, b) = a*b / gcd(a, b).  An integer greater than 1 is prime when it has no positive divisors other than 1 and itself.  a mod m is the remainder of a divided by m.  ## Worked Examples 1.  Compute ": 4113, ", perimeter = 32": 4114, "no divisor ": 4115, " and give the answer in lowest terms.  Solution: Using the common denominator 6*": 4116, "-6*": 4117, "5 2.  Solve for x: ": 4118, ".  Solution: Subtract 7": 4119, " has no divisor ": 4120, " and height 12.  Find its area.  Solution: Area = (1/2)*": 4121, ", 78": 4122, ", so it is prime.  Answer: ": 4123, "undefined 2.  ": 4124, "13x + 40": 4125, "3 dx = -3": 4126, "4 dx = -4": 4127, "greater than 1 and les": 4128, "s than itself": 4129, " has no divisor greater than 1 and les": 4130, "s than itself, so it is prime.  Answer: ": 4131, " has no divisor greater than 1 and less than itself, so it is prime.  Answer: ": 4132, "/-5": 4133, "1.# Linear Equations -- Practice ": 4134, "2^2 = 4": 4135, "3^2": 4136, "4x + 2)": 4137, "5.# Linear Equations -- Practice ": 4138, "5 of 1": 4139, "6).  Answer: ": 4140, "7 and multiply to ": 4141, "8.# Linear Equations -- Practice ": 4142, "1.  Therefore x^2 + ": 4143, "2.  Solution: ": 4144, "3.  Solution: f(": 4145, "5.  Therefore x^2 - ": 4146, "Ï 5.  ": 4147, "1) dx.  3.  ": 4148, " = -2.  Answer: ": 4149, " = -10.  Answer: ": 4150, " = 1x - 1": 4151, " = 12.  Answer: ": 4152, "(x - 5).  Answer: ": 4153, "168": 4154, ".  5.  Evaluate f(x) = ": 4155, "2x - 9": 4156, ".  2.  Evaluate f(x) = ": 4157, "3) dx.  5.  ": 4158, "-4x] = -": 4159, " = 4x - 1": 4160, " = 4x + 2": 4161, " = 9Ï; circumference = 2Ïr = 2*Ï*": 4162, "1/3x^3 + C": 4163, "1/3x^3, â« -": 4164, "x^2 + C  ## Exercises 1.  ": 4165, ").  ## Answer Key 1.  x = 30Â° or x = 150Â° 2.  ": 4166, " * 9": 4167, "6x - 5": 4168, " distinct items, how many subsets of size 2 exist?  ## Answer Key 1.  ": 4169, ", perimeter = 38": 4170, "1x^3, â« -": 4171, "7x - 20": 4172, "7 2.  Solve for x: ": 4173, ", 96": 4174, ", perimeter = 24": 4175, ", perimeter = 28": 4176, "A fair coin is flipped 2 times.  What is the probability of 2 heads in a row? 2.  ": 4177, "Ï.  Answer: area = 9Ï, circumference = 6": 4178, "Ï.  Answer: area = 4Ï, circumference = 4": 4179, "Ï; circumference = 2Ïr = 2*Ï*2 = 4": 4180, "Find its area and circumference (leave answers in terms of Ï).  Solution: Area = Ïr^2 = Ï*2^2 = 4": 4181, "Find its area and circumference (leave answers in terms of Ï).  Solution: Area = Ïr^2 = Ï*3^2": 4182, "Evaluate the definite integral â« from 0 to 2": 4183, "â2/2 4.  ": 4184, "1/3x^3 + 3/2": 4185, "x; combine the terms: 2/3": 4186, "4x dx = -": 4187, "x = 30Â° or x = 150Â° 3.  x = 30Â° or x = 150Â° 4.  ": 4188, "  ## Definition Trigonometry relates the angles and side ratios of right triangles through the functions sine, cosine and tangent.  ## Rules Standard exact values: sin(30Â°) = 1/2, cos(45Â°) = â2/2, tan(60Â°) = â3.  sin(x) is positive in quadrants I and II; cos(x) is positive in quadrants I and IV.  The Pythagorean identity states sin^2(Î¸) + cos^2(Î¸) = 1.  ## Worked Examples 1.  Solve sin(x) = 1/2 for x in [0Â°, 360Â°].  Solution: sin(x) = 1/2 in [0Â°, 360Â°].  sin is positive in quadrants I and II: x = 30Â° and x = 180Â° - 30Â° = 150Â°.  Answer: x = 30Â° or x = 150Â° 2.  Solve cos(x) = 1/2 for x in [0Â°, 360Â°].  Solution: cos(x) = 1/2 in [0Â°, 360Â°].  cos is positive in quadrants I and IV: x = 60Â° and x = 360Â° - 60Â° = 300Â°.  Answer: x = 60Â° or x = 300Â°  ## Exercises 1.  ": 4189, "3x dx = 3": 4190, " a prime number? 4.  Find lcm(": 4191, "3 = 6Ï.  Answer: area = 9Ï, circumference = 6": 4192, "14x + 48": 4193, "-4x] = -4": 4194, " = 9Ï; circumference = 2Ïr = 2*Ï*3 = 6Ï.  Answer: area = 9Ï, circumference = 6": 4195, "Ï; circumference = 2Ïr = 2*Ï*2 = 4Ï.  Answer: area = 4Ï, circumference = 4": 4196, "Find its area and circumference (leave answers in terms of Ï).  Solution: Area = Ïr^2 = Ï*2^2 = 4Ï; circumference = 2Ïr = 2*Ï*2 = 4Ï.  Answer: area = 4Ï, circumference = 4": 4197, "Find its area and circumference (leave answers in terms of Ï).  Solution: Area = Ïr^2 = Ï*3^2 = 9Ï; circumference = 2Ïr = 2*Ï*3 = 6Ï.  Answer: area = 9Ï, circumference = 6": 4198, "3x dx = 3/2": 4199, "/45": 4200, "0x": 4201, "0 and multiply to -": 4202, "1 dx = ": 4203, "1x^4": 4204, "220": 4205, "2x^4": 4206, "3 (": 4207, "3).  Answer: ": 4208, "8 = 16": 4209, ", 70": 4210, "4.  3.  Solve for x: ": 4211, "4.  Solution: f(": 4212, "6.  5.  Solve for x: ": 4213, "1/2x^2, â« ": 4214, " 5.  -1": 4215, " 6.  3": 4216, "126": 4217, ", 33": 4218, "] = 9x^2, d/dx[": 4219, "â3 2.  ": 4220, " dx = 5": 4221, "14 leaves remainder ": 4222, "Evaluate the indefinite integral â« (4x^2 + ": 4223, "4)x = ": 4224, "4) dx.  6.  ": 4225, "1/6 5.  1/6 6.  ": 4226, "130": 4227, "3) dx.  3.  ": 4228, "-2x] = -": 4229, "1x - 8": 4230, "1x - 9": 4231, "4x + 4": 4232, "2x + 6": 4233, "2x + 9": 4234, " mod 14": 4235, "11 and multiply to ": 4236, ").  4.  Solve x^2 + ": 4237, "3/2x^4 + C": 4238, "3.  Answer: x = -": 4239, " = 9.  Answer: x = ": 4240, " = 56": 4241, "4.  Answer: f'(x) = ": 4242, " divided by 14 leaves remainder ": 4243, "Find the derivative of f(x) = 3*sin(3x)": 4244, ", so x = -8": 4245, "2 2.  Solve for x: ": 4246, "% of 100? 5.  ": 4247, "  ## Definition Arithmetic is the study of numbers and the basic operations performed on them: addition, subtraction, multiplication and division.  ## Rules Add and subtract by aligning place values.  Multiply digit by digit and add partial products.  A fraction a/b is in lowest terms when gcd(a, b) = 1.  A percentage p% is the fraction p/100.  ## Worked Examples 1.  Compute 6": 4248, "8.  Answer: 18": 4249, " mod 14.  Solution: ": 4250, "*sin(4x).  2.  ": 4251, " and give the answer in lowest terms.  Solution: Using the common denominator 1*": 4252, "8x - 5": 4253, ".  Solution: Subtract 9": 4254, "A fair coin is flipped 3 times.  What is the probability of 3 heads in a row?  ## Answer Key 1.  ": 4255, " 3.  x = -3": 4256, "2x^3] = 6": 4257, " and give the answer in lowest terms.  5.  Compute ": 4258, "3x^3] = 9x^2, d/dx[": 4259, " is divisible by 3 (": 4260, "1x^2, â« -": 4261, "x^2 + 3 + C 2.  ": 4262, "1x dx = ": 4263, " a prime number? 6.  Find lcm(": 4264, " a prime number? 3.  Find gcd(": 4265, "^3/3 - 3*1^3/3": 4266, "x^2 dx = [3x^3/3] from 1 to ": 4267, "94, ": 4268, " = -8, so x = -8": 4269, "0x dx = 0": 4270, "-2x] = -2": 4271, "2x^3] = 6x^2, d/dx[": 4272, "), so it is not prime.  Answer: no 2.  ": 4273, "0, so ": 4274, "1.# Number Theory -- Practice ": 4275, "2 dx = 2": 4276, "3 = -": 4277, "3x^2, d/dx[": 4278, "6x^3": 4279, "6x - 16": 4280, "7 4.  x = ": 4281, "8  ## Exercises 1.  Solve for x: ": 4282, "9 = 18": 4283, " + 1": 4284, " - 2": 4285, ", 65": 4286, "2.  3.  Solve for x: ": 4287, " 2.  area = ": 4288, "108": 4289, "10 3.  ": 4290, " 6.  0": 4291, "  ## Exercises 1.  Compute 6": 4292, "  ## Exercises 1.  Evaluate the definite integral â« from 2 to ": 4293, "1) dx.  6.  ": 4294, ", 37": 4295, " = 0.  ## Answer Key 1.  x = -": 4296, " = 32": 4297, "-1x^3] = -": 4298, "] = 12x^2, d/dx[": 4299, "180": 4300, "148": 4301, " = 2*2": 4302, " = 2*3": 4303, ".  4.  Given f(x) = ": 4304, " = (1*": 4305, "3) dx.  ## Answer Key 1.  ": 4306, "3) dx.  6.  ": 4307, "1x - 4": 4308, "1x - 7": 4309, "1x - 20": 4310, ", perimeter = 16": 4311, "3x - 3": 4312, "3x - 6": 4313, "4x + 7": 4314, "-4*": 4315, "-4x^2] = -": 4316, " mod 5": 4317, "5x + 9": 4318, " = 4x + 1": 4319, ").  6.  Factor x^2 + ": 4320, "3x + 0": 4321, "x^1 dx.  5.  ": 4322, "6).  ## Answer Key 1.  ": 4323, " = 81": 4324, " = 7x + 1": 4325, " = 7.  Answer: x = ": 4326, "Find the derivative of f(x) = 2x^2.  ": 4327, "2/3x^3 + C": 4328, "% of 100? 4.  ": 4329, "  ## Definition Integration is the inverse of differentiation.  The indefinite integral â« f(x) dx is a family of antiderivatives differing by a constant C.  ## Rules Power rule for integration: â« x^n dx = x^(n+1)/(n+1) + C for n â  -1.  A definite integral â« from a to b f(x) dx equals F(b) - F(a) for any antiderivative F.  ## Worked Examples 1.  Evaluate the definite integral â« from 3 to ": 4330, "8.  Answer: area = ": 4331, " - -1": 4332, "  ## Definition Probability measures the likelihood of an event as a number between 0 and 1, equal to favourable outcomes divided by equally likely outcomes.  ## Rules For equally likely outcomes, P(event) = favourable / total.  Independent events multiply: P(A and B) = P(A)*P(B).  The number of k-subsets of an n-set is the binomial coefficient C(n, k).  ## Worked Examples 1.  A fair coin is flipped 1 times.  What is the probability of 1 heads in a row?    Solution: Each flip has probability 1/2, so P = (1/2)^1 = 1/2.  Answer: ": 4333, " + 7/7": 4334, " + 6/3": 4335, ".  Solution: Subtract 2": 4336, "4x^3] = 12x^2, d/dx[": 4337, "2 + C 4.  ": 4338, "A fair six-sided die is rolled once.  What is the probability of rolling exactly 6?    Solution: There is 1 favourable outcome out of 6 equally likely outcomes, so P = 1/6.  Answer: 1/6  ## Exercises 1.  ": 4339, "9 2.  Solve for x: ": 4340, "2x^2, â« -": 4341, " = 0.  2.  Solve x^2 + ": 4342, " = 0.  6.  Factor x^2 + ": 4343, "% of 1000?  ## Answer Key 1.  ": 4344, "2x dx = -": 4345, " a prime number? 6.  Is ": 4346, "3.  ## Answer Key 1.  x = ": 4347, "1x] = 1, so f'(x) = ": 4348, "-1x^3] = -3x^2, d/dx[": 4349, "-4x^2] = -8x, d/dx[": 4350, "  ## Definition Probability measures the likelihood of an event as a number between 0 and 1, equal to favourable outcomes divided by equally likely outcomes.  ## Rules For equally likely outcomes, P(event) = favourable / total.  Independent events multiply: P(A and B) = P(A)*P(B).  The number of k-subsets of an n-set is the binomial coefficient C(n, k).  ## Worked Examples 1.  A fair coin is flipped 1 times.  What is the probability of 1 heads in a row?    Solution: Each flip has probability 1/2, so P = (1/2)^1 = 1/2.  Answer: 1/2 2.  ": 4351, "(x + 1": 4352, "0 dx = 0": 4353, "2 and ": 4354, "215": 4355, "2x, d/dx[": 4356, "3 mod 1": 4357, "4 and ": 4358, "4 = 1": 4359, "4x^4": 4360, "4 dx = 4": 4361, "5 = ": 4362, "5^2": 4363, "5x^4": 4364, "5, perimeter = 5": 4365, "7 and ": 4366, "7x - 16": 4367, " - 5": 4368, " - 7": 4369, ", 20": 4370, ", 60": 4371, "4.  Therefore x^2 + ": 4372, " 2.  x = -": 4373, " 2.  Factor x^2 + ": 4374, "Ï  ## Exercises 1.  A rectangle has width ": 4375, " 5.  1": 4376, " 5.  1 6.  ": 4377, "150": 4378, " = -8.  Answer: x = -": 4379, " = -5.  Answer: x = -": 4380, " = 3x + 2": 4381, "-1x^2] = -": 4382, "] = 10x, d/dx[": 4383, "] = 15x^2, d/dx[": 4384, "4x - 21": 4385, " = 2*4": 4386, "2x - 2)": 4387, "40.  Answer: ": 4388, "3)x = ": 4389, "1x - 12": 4390, "3x - 9": 4391, "4x + 9": 4392, "2)x = -": 4393, "5x + 8": 4394, "x^4 dx.  5.  ": 4395, ").  3.  Factor x^2 + ": 4396, "3x + 3": 4397, "6)x = -": 4398, "250": 4399, "36 2.  ": 4400, " = 5*": 4401, " = 5x - 1": 4402, " * 6": 4403, "Find the derivative of f(x) = 2*sin(2x)": 4404, "Find the derivative of f(x) = 1*sin(4x)": 4405, " dx.  Solution: â« 4x^2 dx = ": 4406, " and give the answer in lowest terms.  Solution: Using the common denominator 3*": 4407, "4 + C.# Integration -- Practice ": 4408, " = 3*4": 4409, ", 97": 4410, "Ï.  Answer: area = 25Ï, circumference = 10": 4411, "Ï; circumference = 2Ïr = 2*Ï*5 = 10": 4412, "Find its area and circumference (leave answers in terms of Ï).  Solution: Area = Ïr^2 = Ï*5^2": 4413, " 3.  x = 0": 4414, " and height 14.  Find its area.  Solution: Area = (1/2)*": 4415, "A fair six-sided die is rolled once.  What is the probability of rolling exactly 6? 2.  ": 4416, "Evaluate the indefinite integral â« 5x^3": 4417, "2x^2] = 4": 4418, " = 0.  2.  Factor x^2 + ": 4419, "% of 800?  ## Answer Key 1.  ": 4420, "Solve cos(x) = 1/2 for x in [0Â°, 360Â°].  ## Answer Key 1.  x = 30Â° or x = 150Â° 2.  ": 4421, "3.  ## Answer Key 1.  x = -": 4422, "5x^3] = 15x^2, d/dx[": 4423, " = 25Ï; circumference = 2Ïr = 2*Ï*5 = 10": 4424, "5x^2] = 10x, d/dx[": 4425, "-1x] = -1, so f'(x) = ": 4426, "(x + 1).  Answer: ": 4427, "-1x^2] = -2x, d/dx[": 4428, " dx.  Solution: â« 4x^2 dx = 4/3": 4429, "Find its area and circumference (leave answers in terms of Ï).  Solution: Area = Ïr^2 = Ï*5^2 = 25Ï; circumference = 2Ïr = 2*Ï*5 = 10": 4430, "2x^2] = 4x, d/dx[": 4431, "Find its area and circumference (leave answers in terms of Ï).  Solution: Area = Ïr^2 = Ï*5^2 = 25Ï; circumference = 2Ïr = 2*Ï*5 = 10Ï.  Answer: area = 25Ï, circumference = 10": 4432, "2.# Number Theory -- Practice ": 4433, "2 6.  x = ": 4434, "2x + 2)": 4435, "3  ## Exercises 1.  ": 4436, "4x, d/dx[": 4437, "5 and multiply to ": 4438, "5 4.  x = ": 4439, "6.# Linear Equations -- Practice ": 4440, "7 = 14": 4441, "8 = -": 4442, "9^2": 4443, ", 13": 4444, ", 80": 4445, ", 26": 4446, "x + 56": 4447, "x - 6": 4448, "4.  Solution: Find two numbers that add to -": 4449, " 2.  Find the derivative of f(x) = 1": 4450, " 4.  What is ": 4451, "128": 4452, "1).  ## Answer Key 1.  ": 4453, "x^3 + 1x^2 + ": 4454, "140": 4455, " = (4*": 4456, "-2x^2] = -": 4457, " mod 6": 4458, " = 48": 4459, "5x - 9": 4460, ").  3.  Solve cos(x) = 1/2 for x in [0Â°, 360Â°].  4.  ": 4461, ").  5.  Solve x^2 + ": 4462, "28.  Answer: ": 4463, "/5 + 7": 4464, "7).  ## Answer Key 1.  ": 4465, "3.  Answer: f'(x) = 12x^3": 4466, "1x + 4": 4467, "1x + 5": 4468, "1x + 8": 4469, " = 54": 4470, "Factor x^2 - 10x + 2": 4471, "Find the derivative of f(x) = 2x^4.  ": 4472, "% of 100? 6.  ": 4473, "-5x] = -": 4474, "x^4.  2.  ": 4475, " distinct items, how many subsets of size 2 exist?  ## Answer Key 1.  1/6 2.  ": 4476, "  ## Definition Probability measures the likelihood of an event as a number between 0 and 1, equal to favourable outcomes divided by equally likely outcomes.  ## Rules For equally likely outcomes, P(event) = favourable / total.  Independent events multiply: P(A and B) = P(A)*P(B).  The number of k-subsets of an n-set is the binomial coefficient C(n, k).  ## Worked Examples 1.  A fair six-sided die is rolled once.  What is the probability of rolling exactly 3": 4477, " + 9/7": 4478, "1/4 5.  ": 4479, "Evaluate the definite integral â« from 1 to 1": 4480, " and give the answer in lowest terms.  Solution: Using the common denominator 7*": 4481, "Find its area and perimeter.  Solution: Area = 4*": 4482, "4 + C 5.  ": 4483, "4 + C 4.  ": 4484, "A fair coin is flipped 1 times.  What is the probability of 1 heads in a row? 3.  ": 4485, "Ï.  Answer: area = 81Ï, circumference = 18": 4486, "Ï; circumference = 2Ïr = 2*Ï*9 = 18": 4487, "Find its area and circumference (leave answers in terms of Ï).  Solution: Area = Ïr^2 = Ï*9^2": 4488, "â3/2.# Trigonometry -- Practice ": 4489, "% of 200?  ## Answer Key 1.  ": 4490, "1x^2] = 2": 4491, "yes 3.  ": 4492, " and give the answer in lowest terms.  3.  Compute ": 4493, "Solve sin(x) = 1/2 for x in [0Â°, 360Â°].  3.  Solve cos(x) = 1/2 for x in [0Â°, 360Â°].  4.  ": 4494, "x^4.  Solution: By the power rule, d/dx[3x^4": 4495, "4x^(4 - 1) = 12x^": 4496, "Solve sin(x) = 1/2 for x in [0Â°, 360Â°].  ## Answer Key 1.  x = 30Â° or x = 150Â° 2.  ": 4497, "] = 3*4x^(4 - 1) = 12x^": 4498, "11x + 24": 4499, "12x + 35": 4500, "12x + 32": 4501, "/(2 + 1) x^(2 + 1) + C = 2": 4502, " = 81Ï; circumference = 2Ïr = 2*Ï*9 = 18": 4503, "-2x^2] = -4x, d/dx[": 4504, "  ## Definition Probability measures the likelihood of an event as a number between 0 and 1, equal to favourable outcomes divided by equally likely outcomes.  ## Rules For equally likely outcomes, P(event) = favourable / total.  Independent events multiply: P(A and B) = P(A)*P(B).  The number of k-subsets of an n-set is the binomial coefficient C(n, k).  ## Worked Examples 1.  A fair six-sided die is rolled once.  What is the probability of rolling exactly 3?    Solution: There is 1 favourable outcome out of 6 equally likely outcomes, so P = 1/6.  Answer: 1/6 2.  ": 4505, "Find its area and circumference (leave answers in terms of Ï).  Solution: Area = Ïr^2 = Ï*9^2 = 81Ï; circumference = 2Ïr = 2*Ï*9 = 18": 4506, "1x^2] = 2x, d/dx[": 4507, "x^4.  Solution: By the power rule, d/dx[3x^4] = 3*4x^(4 - 1) = 12x^": 4508, "Find its area and circumference (leave answers in terms of Ï).  Solution: Area = Ïr^2 = Ï*9^2 = 81Ï; circumference = 2Ïr = 2*Ï*9 = 18Ï.  Answer: area = 81Ï, circumference = 18": 4509, "x^4.  Solution: By the power rule, d/dx[3x^4] = 3*4x^(4 - 1) = 12x^3.  Answer: f'(x) = 12x^3": 4510, "/15": 4511, "3 and ": 4512, "3x + 18": 4513, "4 = 3*4": 4514, "6^2": 4515, "71, ": 4516, "8x + 2": 4517, "8 and multiply to ": 4518, "9)x = ": 4519, " = (x + 8)": 4520, " - 17": 4521, ", 5": 4522, "3.  2.  Solve for x: ": 4523, "3.  4.  Solve for x: ": 4524, "5.  Solution: Find two numbers that add to ": 4525, "104": 4526, "10 6.  ": 4527, "10 and multiply to ": 4528, "104/3": 4529, "10x + 4": 4530, " 3.  0 4.  ": 4531, " 4.  -1": 4532, "x = 3 or x = ": 4533, "1) dx.  ## Answer Key 1.  ": 4534, "1) dx.  2.  ": 4535, " = 35": 4536, " = 3x - 2": 4537, " = 17": 4538, " = 18.  Answer: 18": 4539, " and g(x) = 4x + 2": 4540, "Evaluate f(x) = 2": 4541, "4x - 6": 4542, "4x - 12": 4543, ".  4.  What is ": 4544, "2x - 48": 4545, "-2*": 4546, ", perimeter = 1": 4547, ", perimeter = 18": 4548, "3x - 20": 4549, "3x - 2)": 4550, "4x + 6": 4551, "4x + 20": 4552, "x = 30Â° or x = 150Â° 6.  ": 4553, "2)x = ": 4554, "2).  ## Answer Key 1.  ": 4555, "-4 and ": 4556, "2x + 7": 4557, ": -8": 4558, " = 4, so x = ": 4559, "5x - 24": 4560, ").  2.  Compute ": 4561, "117": 4562, ").  4.  Compute ": 4563, ").  4.  Factor x^2 + ": 4564, ").  6.  Solve x^2 - ": 4565, ").  5.  Compute ": 4566, "3x + 7": 4567, "5)x = -": 4568, " = 6, so x = ": 4569, "8)x = ": 4570, "256": 4571, " = 8x + 2": 4572, "1x + 3": 4573, "1x + 6": 4574, "1x + 7": 4575, "; perimeter = 2*(11": 4576, " = 9x + 2": 4577, "/63": 4578, "8.  Answer: -": 4579, ".# Differentiation -- Practice 2": 4580, "  ## Definition The derivative f'(x) measures the rate of change of f at x; it is the slope of the tangent line to the graph of f.  ## Rules Power rule: d/dx[x^n] = n*x^(n-1).  Constants factor out: d/dx[a*f(x)] = a*f'(x).  The derivative of sin(kx) is k*cos(kx) by the chain rule.  ## Worked Examples 1.  Find the derivative of f(x) = ": 4581, "  ## Definition Arithmetic is the study of numbers and the basic operations performed on them: addition, subtraction, multiplication and division.  ## Rules Add and subtract by aligning place values.  Multiply digit by digit and add partial products.  A fraction a/b is in lowest terms when gcd(a, b) = 1.  A percentage p% is the fraction p/100.  ## Worked Examples 1.  Compute 9": 4582, "  ## Definition Arithmetic is the study of numbers and the basic operations performed on them: addition, subtraction, multiplication and division.  ## Rules Add and subtract by aligning place values.  Multiply digit by digit and add partial products.  A fraction a/b is in lowest terms when gcd(a, b) = 1.  A percentage p% is the fraction p/100.  ## Worked Examples 1.  Compute 4": 4583, "  ## Definition Integration is the inverse of differentiation.  The indefinite integral â« f(x) dx is a family of antiderivatives differing by a constant C.  ## Rules Power rule for integration: â« x^n dx = x^(n+1)/(n+1) + C for n â  -1.  A definite integral â« from a to b f(x) dx equals F(b) - F(a) for any antiderivative F.  ## Worked Examples 1.  Evaluate the definite integral â« from 2 to ": 4584, "Find the derivative of f(x) = 1*sin(2x)": 4585, "/8 + 8": 4586, "6x - 8": 4587, "  ## Definition Probability measures the likelihood of an event as a number between 0 and 1, equal to favourable outcomes divided by equally likely outcomes.  ## Rules For equally likely outcomes, P(event) = favourable / total.  Independent events multiply: P(A and B) = P(A)*P(B).  The number of k-subsets of an n-set is the binomial coefficient C(n, k).  ## Worked Examples 1.  A fair six-sided die is rolled once.  What is the probability of rolling exactly 1": 4588, ".# Functions -- Practice 2": 4589, " 6.  f'(x) = 16x^3": 4590, "*sin(2x).  2.  ": 4591, "7x + 0": 4592, "9x + 5": 4593, "8x - 2": 4594, "8x - 4": 4595, "Find its area and perimeter.  Solution: Area = 6": 4596, "A fair coin is flipped 1 times.  What is the probability of 1 heads in a row?  ## Answer Key 1.  1/6 2.  ": 4597, ", 95": 4598, " 4.  x = -7": 4599, "A fair coin is flipped 2 times.  What is the probability of 2 heads in a row?  ## Answer Key 1.  ": 4600, "Ï.  Answer: area = 36Ï, circumference = 12": 4601, "Ï; circumference = 2Ïr = 2*Ï*6 = 12": 4602, "Find its area and circumference (leave answers in terms of Ï).  Solution: Area = Ïr^2 = Ï*6^2": 4603, "2 + C.# Integration -- Practice ": 4604, ", 82": 4605, "A fair six-sided die is rolled once.  What is the probability of rolling exactly 1? 5.  ": 4606, "A fair six-sided die is rolled once.  What is the probability of rolling exactly 1? 4.  ": 4607, "A fair six-sided die is rolled once.  What is the probability of rolling exactly 2? 2.  ": 4608, "A fair six-sided die is rolled once.  What is the probability of rolling exactly 2?    Solution: There is 1 favourable outcome out of 6 equally likely outcomes, so P = 1/6.  Answer: 1/6  ## Exercises 1.  ": 4609, "A fair six-sided die is rolled once.  What is the probability of rolling exactly 4? 6.  ": 4610, "% of 50?  ## Answer Key 1.  ": 4611, "% of 400?  ## Answer Key 1.  ": 4612, "10x + 24": 4613, "2.  ## Answer Key 1.  x = ": 4614, "2x dx = ": 4615, "2x] = 2": 4616, "1.  ## Answer Key 1.  x = ": 4617, "Find the exact value of cos(30Â°).  Solution: The standard exact value is cos(": 4618, ") = 36.  Answer: area = ": 4619, "5/3x^3 + C": 4620, " = 36Ï; circumference = 2Ïr = 2*Ï*6 = 12": 4621, "Find its area and perimeter.  Solution: Area = 11*": 4622, "/(1 + 1) x^(1 + 1) + C = 3": 4623, " 6.  1/2.# Probability -- Practice ": 4624, "30Â°) = â3/2.  Answer: â3/2": 4625, " = 10.  Answer: x = 10 2.  Solve for x: ": 4626, " dx.  Solution: â« -4x^2 dx = -4/3x^3, â« ": 4627, " = 4, so x = 4": 4628, " = 6, so x = 6": 4629, "  ## Definition Probability measures the likelihood of an event as a number between 0 and 1, equal to favourable outcomes divided by equally likely outcomes.  ## Rules For equally likely outcomes, P(event) = favourable / total.  Independent events multiply: P(A and B) = P(A)*P(B).  The number of k-subsets of an n-set is the binomial coefficient C(n, k).  ## Worked Examples 1.  A fair six-sided die is rolled once.  What is the probability of rolling exactly 1?    Solution: There is 1 favourable outcome out of 6 equally likely outcomes, so P = 1/6.  Answer: 1/6 2.  ": 4630, "Find its area and circumference (leave answers in terms of Ï).  Solution: Area = Ïr^2 = Ï*6^2 = 36Ï; circumference = 2Ïr = 2*Ï*6 = 12": 4631, "Find the exact value of cos(30Â°).  Solution: The standard exact value is cos(30Â°) = â3/2.  Answer: â3/2": 4632, "Find its area and circumference (leave answers in terms of Ï).  Solution: Area = Ïr^2 = Ï*6^2 = 36Ï; circumference = 2Ïr = 2*Ï*6 = 12Ï.  Answer: area = 36Ï, circumference = 12": 4633, "/40": 4634, "/-7": 4635, "0*": 4636, "116": 4637, "2 6.  x = -": 4638, "5 mod 1": 4639, "6 = 3*": 4640, "8^2": 4641, "91, ": 4642, "9  ## Definition A linear equation is an equality that can be written as ax + b = 0 with a â  0; its graph is a straight line.  ## Rules To solve ax + b = cx + d, move the variable terms to one side: (a - c)x = d - b, then divide by the coefficient of x, provided a â  c.  ## Worked Examples 1.  Solve for x: ": 4643, " - 3": 4644, ", 25": 4645, ", 59": 4646, "5.  They are ": 4647, " 2.  Solve for x: ": 4648, ") = 5": 4649, " 5.  Compute ": 4650, " 5.  12": 4651, " 6.  5": 4652, " 4.  1 5.  ": 4653, "  ## Exercises 1.  Compute 5": 4654, " = 2x - 1": 4655, " = 2x + 1": 4656, " = -18": 4657, "20 2.  ": 4658, "20 = -": 4659, "144": 4660, "4x + 8": 4661, "-3x] = -": 4662, "5x - 20": 4663, " at x = 5.  Solution: f(": 4664, " at x = 1.  Solution: f(": 4665, " at x = 3.  Solution: f(": 4666, "3x + 5": 4667, " = 63.  Answer: ": 4668, "6)x = ": 4669, "24, perimeter = 2": 4670, "24x^3.  Answer: f'(x) = ": 4671, " = 9x - 1": 4672, "36 5.  ": 4673, " = 5x + 1": 4674, "4 2.  area = ": 4675, "80.  Answer: ": 4676, "/1 + 2": 4677, ".# Algebra -- Practice 2": 4678, ".# Arithmetic -- Practice 2": 4679, "  ## Definition The derivative f'(x) measures the rate of change of f at x; it is the slope of the tangent line to the graph of f.  ## Rules Power rule: d/dx[x^n] = n*x^(n-1).  Constants factor out: d/dx[a*f(x)] = a*f'(x).  The derivative of sin(kx) is k*cos(kx) by the chain rule.  ## Worked Examples 1.  Find the derivative of f(x) = 6": 4680, "/8 + ": 4681, "1.  Answer: 21 2.  ": 4682, "6x - 3": 4683, " - -14": 4684, " + 9/2": 4685, " + 7/3": 4686, "7x + 9": 4687, "9x + 15": 4688, "Evaluate the definite integral â« from 1 to 3 of 4": 4689, ".  Solution: Subtract 5": 4690, ".  Solution: Subtract 6": 4691, " 4.  x = -3": 4692, "A fair coin is flipped 2 times.  What is the probability of 2 heads in a row? 6.  ": 4693, "Ï.  Answer: area = 64Ï, circumference = 16": 4694, "Ï; circumference = 2Ïr = 2*Ï*8 = 16": 4695, "Find its area and circumference (leave answers in terms of Ï).  Solution: Area = Ïr^2 = Ï*8^2": 4696, " 5.  x = 0": 4697, "-7 and ": 4698, ", 74": 4699, ", 77": 4700, "A fair six-sided die is rolled once.  What is the probability of rolling exactly 3? 6.  ": 4701, "A fair six-sided die is rolled once.  What is the probability of rolling exactly 3? 5.  ": 4702, "A fair six-sided die is rolled once.  What is the probability of rolling exactly 3?    Solution: There is 1 favourable outcome out of 6 equally likely outcomes, so P = 1/6.  Answer: 1/6  ## Exercises 1.  ": 4703, "  ## Definition Algebra generalizes arithmetic by using symbols, typically letters, to represent numbers that may be unknown or variable.  ## Rules The distributive law a(b + c) = ab + ac lets you expand products.  To factor x^2 + px + q, find two numbers that add to p and multiply to q.  A quadratic x^2 + px + q = 0 with roots r1 and r2 satisfies r1 + r2 = -p and r1*r2 = q.  ## Worked Examples 1.  Expand (3x - ": 4704, "x; combine the terms: 4/3": 4705, "1x^2, â« ": 4706, " = 0.  3.  Solve x^2 - ": 4707, "yes 4.  ": 4708, "64Ï, circumference = 16Ï.# Geometry -- Practice ": 4709, "Solve sin(x) = 1/2 for x in [0Â°, 360Â°].  5.  Solve sin(x) = 1/2 for x in [0Â°, 360Â°].  6.  ": 4710, "x^4.  Solution: By the power rule, d/dx[6x^4": 4711, "4x^(4 - 1) = 24x^3.  Answer: f'(x) = ": 4712, " a prime number? 6.  Find gcd(": 4713, " a prime number? 3.  Find lcm(": 4714, " a prime number? 4.  Find gcd(": 4715, "Evaluate the definite integral â« from 1 to 2 of 4": 4716, " a prime number? 2.  Is ": 4717, "A circle has radius 1.  Find its area and circumference (leave answers in terms of Ï).  3.  ": 4718, "Find the derivative of f(x) = 4x^4.  ## Answer Key 1.  f'(x) = ": 4719, "] = 6*4x^(4 - 1) = 24x^3.  Answer: f'(x) = ": 4720, "5x] = ": 4721, "x = -9  ## Exercises 1.  Solve for x: ": 4722, " = 3.  Answer: x = 3 2.  Solve for x: ": 4723, " = -9.  Answer: x = -9  ## Exercises 1.  Solve for x: ": 4724, " = 64Ï; circumference = 2Ïr = 2*Ï*8 = 16": 4725, "6 = 3*6": 4726, "-3x] = -3": 4727, " at x = 5.  Solution: f(5": 4728, " at x = 1.  Solution: f(1) = ": 4729, " at x = 3.  Solution: f(3": 4730, "Find its area and circumference (leave answers in terms of Ï).  Solution: Area = Ïr^2 = Ï*8^2 = 64Ï; circumference = 2Ïr = 2*Ï*8 = 16": 4731, "x^4.  Solution: By the power rule, d/dx[6x^4] = 6*4x^(4 - 1) = 24x^3.  Answer: f'(x) = ": 4732, "Find its area and circumference (leave answers in terms of Ï).  Solution: Area = Ïr^2 = Ï*8^2 = 64Ï; circumference = 2Ïr = 2*Ï*8 = 16Ï.  Answer: area = 64Ï, circumference = 16": 4733, "x^4.  Solution: By the power rule, d/dx[6x^4] = 6*4x^(4 - 1) = 24x^3.  Answer: f'(x) = 24x^3": 4734, "/16": 4735, "/5.  Answer: ": 4736, "0 + ": 4737, "15.  Answer: ": 4738, "1 4.  x = ": 4739, "2*sin(2x)": 4740, "3*sin(1x)": 4741, "4^2": 4742, "4.# Number Theory -- Practice ": 4743, "4 6.  x = -": 4744, "4 = 1*": 4745, "4^3/3 - 1*": 4746, "6 and ": 4747, "6x^2, d/dx[": 4748, "63 2.  ": 4749, "6 6.  x = ": 4750, "7  ## Definition A linear equation is an equality that can be written as ax + b = 0 with a â  0; its graph is a straight line.  ## Rules To solve ax + b = cx + d, move the variable terms to one side: (a - c)x = d - b, then divide by the coefficient of x, provided a â  c.  ## Worked Examples 1.  Solve for x: ": 4751, "7x - 14": 4752, "81, ": 4753, ": 9": 4754, " - 1": 4755, " - 4": 4756, ", 19": 4757, ", 69": 4758, "x + 6": 4759, "x + 8": 4760, "4.  Solution: Find two numbers that add to ": 4761, "5.  Find its area and circumference (leave answers in terms of Ï).  2.  ": 4762, ") = 40": 4763, ") = 28": 4764, ") = 1/2.  Answer: ": 4765, "10x + 3": 4766, "10, 1) = ": 4767, "10!/(1!(": 4768, "60Â°) = 1/2.  Answer: ": 4769, " 3.  12": 4770, " 4.  Compute ": 4771, "  ## Exercises 1.  Compute 8": 4772, "152": 4773, "156": 4774, "15x + 56": 4775, ", 39": 4776, " = 2x + 2": 4777, "/2x^2 + C.  Answer: ": 4778, " = 3*cos(1x).  Answer: f'(x) = ": 4779, " = 1x + 1": 4780, "(x + 4).  Answer: ": 4781, "143": 4782, "14x - ": 4783, "4x - 7": 4784, "4)x - ": 4785, "4).  ## Answer Key 1.  ": 4786, "4) dx.  2.  ": 4787, "135": 4788, " = (9*": 4789, "3)).  Solution: First g(": 4790, "3) dx.  4.  ": 4791, "-2x^3] = -": 4792, "3x - 8": 4793, "-4 + ": 4794, "-3x^3] = -": 4795, "5x + 3": 4796, "5x + 7": 4797, " = 4*cos(2x).  Answer: f'(x) = ": 4798, ").  3.  Compute ": 4799, ").  4.  Solve x^2 - ": 4800, "3x + 8": 4801, "5).  ## Answer Key 1.  ": 4802, "7)x = ": 4803, "248": 4804, "; perimeter = 2*(13": 4805, " = 7x + 2": 4806, "36 4.  ": 4807, "% of 100? 3.  ": 4808, "  ## Definition Arithmetic is the study of numbers and the basic operations performed on them: addition, subtraction, multiplication and division.  ## Rules Add and subtract by aligning place values.  Multiply digit by digit and add partial products.  A fraction a/b is in lowest terms when gcd(a, b) = 1.  A percentage p% is the fraction p/100.  ## Worked Examples 1.  Compute 5": 4809, "6x - 2": 4810, "6x - 12": 4811, "6x + 20": 4812, "*sin(3x).  2.  ": 4813, ").  Solution: First g(0": 4814, " + 9/5": 4815, " + C.  Answer: 4/3": 4816, ", perimeter = 30 2.  ": 4817, "9x + 12": 4818, "1/8 5.  ": 4819, "1/8 6.  ": 4820, ".  Solution: Subtract 8": 4821, "7x - 4": 4822, " + 8/2": 4823, " + 4/4": 4824, ", 92": 4825, ", perimeter = 26": 4826, "Ï.  Answer: area = 16Ï, circumference = 8": 4827, "Ï; circumference = 2Ïr = 2*Ï*4 = 8": 4828, "Find its area and circumference (leave answers in terms of Ï).  Solution: Area = Ïr^2 = Ï*4^2": 4829, "Solution: f(6": 4830, "1 + C 5.  ": 4831, "1 + C 4.  ": 4832, " + 3/7": 4833, " and height 8.  Find its area.  3.  ": 4834, "A fair six-sided die is rolled once.  What is the probability of rolling exactly 3? 3.  ": 4835, "â3/2 4.  ": 4836, "1/3x^3 + 1": 4837, "A fair six-sided die is rolled once.  What is the probability of rolling exactly 6? 5.  ": 4838, " and height 10.  Find its area.  Solution: Area = (1/2)*": 4839, "A fair six-sided die is rolled once.  What is the probability of rolling exactly 1? 2.  ": 4840, " and height 4.  Find its area.  5.  ": 4841, ", perimeter = 44": 4842, " = 0.  6.  Solve x^2 + ": 4843, "1*cos(1x) = 3*cos(1x).  Answer: f'(x) = ": 4844, "A fair six-sided die is rolled once.  What is the probability of rolling exactly 4? 3.  ": 4845, "1)!) = 10.  Answer: ": 4846, " distinct items, how many subsets of size 1 exist?    Solution: The number of k-subsets of an n-set is C(10, 1) = ": 4847, ".  Solution: f(-10": 4848, "A fair six-sided die is rolled once.  What is the probability of rolling exactly 5? 3.  ": 4849, " = 16Ï; circumference = 2Ïr = 2*Ï*4 = 8": 4850, " = 0.  5.  Solve x^2 + ": 4851, " = 0.  3.  Factor x^2 + ": 4852, " = 0.  3.  Solve x^2 + ": 4853, "2*cos(2x) = 4*cos(2x).  Answer: f'(x) = ": 4854, "] = 3*1*cos(1x) = 3*cos(1x).  Answer: f'(x) = ": 4855, "] = 2*2*cos(2x) = 4*cos(2x).  Answer: f'(x) = ": 4856, "4 of 1x^2 dx = [1x^3/3] from ": 4857, "0)).  Solution: First g(0": 4858, "â3/3 2.  ": 4859, "Find the exact value of cos(60Â°).  Solution: The standard exact value is cos(": 4860, " a prime number? 5.  Find gcd(": 4861, ", so f'(x) = -12x^2 - ": 4862, "*sin(1x).  Solution: By the chain rule, d/dx[3*sin(1x)": 4863, "*sin(2x).  Solution: By the chain rule, d/dx[2*sin(2x)": 4864, " at x = -10.  Solution: f(-10": 4865, " at x = 6.  Solution: f(6": 4866, "10 - 1)!) = 10.  Answer: ": 4867, "Find its area and perimeter.  Solution: Area = 13*": 4868, "x = -1  ## Exercises 1.  Solve for x: ": 4869, " = -1.  Answer: x = -1  ## Exercises 1.  Solve for x: ": 4870, " = -6.  Answer: x = -6 2.  Solve for x: ": 4871, " = -4.  Answer: x = -4 2.  Solve for x: ": 4872, "3x dx = -3/2x^2, â« ": 4873, " dx.  Solution: â« 1x^2 dx = 1/3x^3, â« ": 4874, "-4x] = -4, so f'(x) = ": 4875, "4 = 1*4^3/3 - 1*": 4876, "10!/(1!(10 - 1)!) = 10.  Answer: ": 4877, "3)).  Solution: First g(3": 4878, "-2x^3] = -6x^2, d/dx[": 4879, "-3x^3] = -9x^2, d/dx[": 4880, "Find its area and circumference (leave answers in terms of Ï).  Solution: Area = Ïr^2 = Ï*4^2 = 16Ï; circumference = 2Ïr = 2*Ï*4 = 8": 4881, " distinct items, how many subsets of size 1 exist?    Solution: The number of k-subsets of an n-set is C(10, 1) = 10!/(1!(10 - 1)!) = 10.  Answer: ": 4882, "] = 3*1*cos(1x) = 3*cos(1x).  Answer: f'(x) = 3*cos(1x)": 4883, "] = 2*2*cos(2x) = 4*cos(2x).  Answer: f'(x) = 4*cos(2x)": 4884, "Find the exact value of cos(60Â°).  Solution: The standard exact value is cos(60Â°) = 1/2.  Answer: ": 4885, "*sin(1x).  Solution: By the chain rule, d/dx[3*sin(1x)] = 3*1*cos(1x) = 3*cos(1x).  Answer: f'(x) = 3*cos(1x)": 4886, "*sin(2x).  Solution: By the chain rule, d/dx[2*sin(2x)] = 2*2*cos(2x) = 4*cos(2x).  Answer: f'(x) = 4*cos(2x)": 4887, "Find its area and circumference (leave answers in terms of Ï).  Solution: Area = Ïr^2 = Ï*4^2 = 16Ï; circumference = 2Ïr = 2*Ï*4 = 8Ï.  Answer: area = 16Ï, circumference = 8": 4888, "(x - 1": 4889, "*10": 4890, "*14": 4891, "-8 - ": 4892, "1  ## Definition A linear equation is an equality that can be written as ax + b = 0 with a â  0; its graph is a straight line.  ## Rules To solve ax + b = cx + d, move the variable terms to one side: (a - c)x = d - b, then divide by the coefficient of x, provided a â  c.  ## Worked Examples 1.  Solve for x: ": 4893, "1 mod 1": 4894, "1x + 11": 4895, "31, ": 4896, "3x + 14": 4897, "4.# Algebra -- Practice ": 4898, "4 6.  x = ": 4899, "51, ": 4900, "5x + 18": 4901, "5 5.  x = -": 4902, "5 leaves remainder ": 4903, "6x, d/dx[": 4904, "6x + 17": 4905, "6x - 13": 4906, "7 = 2": 4907, "7x + 2": 4908, "8 = 8": 4909, "8 * ": 4910, "9.  4.  Solve for x: ": 4911, "x.  Answer: ": 4912, " = (x - 2)": 4913, " - 9": 4914, ", 29": 4915, ", 63": 4916, ", 53": 4917, ", 41": 4918, "x = 7 or x = -": 4919, "2.  Solution: Find two numbers that add to ": 4920, "2.  Solution: Find two numbers that add to -": 4921, " 2.  Factor x^2 - ": 4922, "x = -1 2.  Solve for x: ": 4923, " 3.  16": 4924, " 3.  -3": 4925, " 5.  4": 4926, "x^2 - 2 + C 2.  ": 4927, "  ## Exercises 1.  Solve sin(x) = 1/2 for x in [0Â°, 360Â°].  2.  ": 4928, "/36": 4929, "1)).  Solution: First g(": 4930, " = 26": 4931, " = 0.  Answer: x = ": 4932, " = 0, so x = 0": 4933, "208": 4934, " = 1x + 2": 4935, " and g(x) = 3x + 2": 4936, " and g(x) = 5x + 1": 4937, "(x - 4).  Answer: ": 4938, "x^3 - 2": 4939, "16 2.  ": 4940, "Evaluate the indefinite integral â« 2x^2": 4941, "2x - 6": 4942, "3)x - ": 4943, "2x + 10": 4944, " mod 5.  Solution: ": 4945, "-3x^2] = -": 4946, ": -5": 4947, "2.  Answer: 2 2.  ": 4948, "28 3.  ": 4949, "30 2.  ": 4950, "30.  Answer: ": 4951, "30.  Answer: area = ": 4952, " = 6x - 1": 4953, "6)).  Solution: First g(": 4954, "25x^2 - ": 4955, "196": 4956, "1x + 10": 4957, " divided by 5 leaves remainder ": 4958, ", so x = -2": 4959, "/7 + ": 4960, "/7 + 6": 4961, ", so x = 12": 4962, "% of 100? 2.  ": 4963, "-5x^3] = -": 4964, "/9 + 2": 4965, ".# Integration -- Practice 3": 4966, "  ## Definition Integration is the inverse of differentiation.  The indefinite integral â« f(x) dx is a family of antiderivatives differing by a constant C.  ## Rules Power rule for integration: â« x^n dx = x^(n+1)/(n+1) + C for n â  -1.  A definite integral â« from a to b f(x) dx equals F(b) - F(a) for any antiderivative F.  ## Worked Examples 1.  Evaluate the indefinite integral â« 1": 4967, "tan(60Â°) = â3.  Answer: ": 4968, "8x + 0": 4969, "8x + 3": 4970, "8x + 4": 4971, "6 2.  area = ": 4972, "x^3.  ## Answer Key 1.  f'(x) = ": 4973, " - -10": 4974, "  ## Definition Probability measures the likelihood of an event as a number between 0 and 1, equal to favourable outcomes divided by equally likely outcomes.  ## Rules For equally likely outcomes, P(event) = favourable / total.  Independent events multiply: P(A and B) = P(A)*P(B).  The number of k-subsets of an n-set is the binomial coefficient C(n, k).  ## Worked Examples 1.  A fair six-sided die is rolled once.  What is the probability of rolling exactly 6": 4975, ").  Solution: First g(-8": 4976, "7.  Answer: -": 4977, " + 9/8": 4978, "9)x - ": 4979, "9.  Answer: -": 4980, "Find its area and perimeter.  Solution: Area = 8": 4981, ").  Solution: The standard exact value is tan(60Â°) = â3.  Answer: ": 4982, "4 + C  ## Exercises 1.  ": 4983, " + 4/7": 4984, "Solution: f(-6": 4985, " = 12, so x = 12": 4986, "x^2 - 3 + C 2.  ": 4987, "9x - 20": 4988, ", 87": 4989, "A fair six-sided die is rolled once.  What is the probability of rolling exactly 3? 2.  ": 4990, "â2/2 5.  ": 4991, "A fair six-sided die is rolled once.  What is the probability of rolling exactly 1? 6.  ": 4992, "  ## Definition Algebra generalizes arithmetic by using symbols, typically letters, to represent numbers that may be unknown or variable.  ## Rules The distributive law a(b + c) = ab + ac lets you expand products.  To factor x^2 + px + q, find two numbers that add to p and multiply to q.  A quadratic x^2 + px + q = 0 with roots r1 and r2 satisfies r1 + r2 = -p and r1*r2 = q.  ## Worked Examples 1.  Expand (2x - ": 4993, "A fair six-sided die is rolled once.  What is the probability of rolling exactly 4? 2.  ": 4994, "% of 200? 3.  ": 4995, " = 0.  5.  Factor x^2 - ": 4996, "yes 5.  ": 4997, "Solve cos(x) = 1/2 for x in [0Â°, 360Â°].  ## Answer Key 1.  x = 60Â° or x = 300Â° 2.  ": 4998, "1/6 4.  1/6 5.  ": 4999, "3x] = 3": 5000, " a prime number? 3.  Is ": 5001, "4.  ## Answer Key 1.  x = -": 5002, " a prime number? 4.  Is ": 5003, "^3/3 - 3*3^3/3": 5004, "x^2 dx = [3x^3/3] from 3 to ": 5005, "Find the exact value of tan(60Â°).  Solution: The standard exact value is tan(60Â°) = â3.  Answer: ": 5006, "Evaluate the definite integral â« from 1 to 2 of 2": 5007, "Find the exact value of tan(30Â°).  Solution: The standard exact value is tan(": 5008, ") = 1.  Answer: 1  ## Exercises 1.  Find gcd(": 5009, ") = 1.  Answer: 1  ## Exercises 1.  Find lcm(": 5010, ") = 32.  Answer: area = ": 5011, ", compute f(g(-8)).  Solution: First g(-8": 5012, " = 5.  Answer: 5": 5013, "Solve x^2 - 1x - 30": 5014, ", so it is not prime.  Answer: no  ## Exercises 1.  Is ": 5015, " at x = -6.  Solution: f(-6": 5016, "/(3 + 1) x^(3 + 1) + C = 3": 5017, " dx.  Solution: â« 2x^2 dx = 2/3x^3, â« ": 5018, " + 1/7": 5019, "30Â°) = â3/3.  Answer: ": 5020, " = -1.  Answer: x = -1 2.  Solve for x: ": 5021, " = -7.  Answer: x = -7  ## Exercises 1.  Solve for x: ": 5022, " = -7.  Answer: x = -7 2.  Solve for x: ": 5023, " dx.  Solution: â« -1x^2 dx = -1/3x^3, â« ": 5024, "1 dx = -1x; combine the terms: ": 5025, " = 7.  Answer: 7 2.  ": 5026, " = 9.  Answer: 9": 5027, " dx.  Solution: â« 3x^2 dx = 1x^3, â« ": 5028, " dx.  Solution: â« -2x^2 dx = -2/3x^3, â« -": 5029, "4x] = 4, so f'(x) = ": 5030, "(x - 1).  Answer: ": 5031, "1)).  Solution: First g(1) = ": 5032, "-3x^2] = -6x, d/dx[": 5033, "6)).  Solution: First g(6": 5034, "-5x^3] = -15x^2, d/dx[": 5035, "  ## Definition Probability measures the likelihood of an event as a number between 0 and 1, equal to favourable outcomes divided by equally likely outcomes.  ## Rules For equally likely outcomes, P(event) = favourable / total.  Independent events multiply: P(A and B) = P(A)*P(B).  The number of k-subsets of an n-set is the binomial coefficient C(n, k).  ## Worked Examples 1.  A fair six-sided die is rolled once.  What is the probability of rolling exactly 6?    Solution: There is 1 favourable outcome out of 6 equally likely outcomes, so P = 1/6.  Answer: 1/6 2.  ": 5036, "Find the exact value of tan(30Â°).  Solution: The standard exact value is tan(30Â°) = â3/3.  Answer: ": 5037, "0x^2": 5038, "1, so ": 5039, "118": 5040, "113": 5041, "12.  They are ": 5042, "2  ## Definition A linear equation is an equality that can be written as ax + b = 0 with a â  0; its graph is a straight line.  ## Rules To solve ax + b = cx + d, move the variable terms to one side: (a - c)x = d - b, then divide by the coefficient of x, provided a â  c.  ## Worked Examples 1.  Solve for x: ": 5043, "2x + 14": 5044, "24.  They are ": 5045, "3 * ": 5046, "3 + C 2.  ": 5047, "3  ## Definition A linear equation is an equality that can be written as ax + b = 0 with a â  0; its graph is a straight line.  ## Rules To solve ax + b = cx + d, move the variable terms to one side: (a - c)x = d - b, then divide by the coefficient of x, provided a â  c.  ## Worked Examples 1.  Solve for x: ": 5048, "3x - 14": 5049, "4x - 17": 5050, "56 2.  ": 5051, "5 and multiply to -": 5052, "5 4.  x = -": 5053, "6 * ": 5054, "72 2.  ": 5055, "7.# Functions -- Practice ": 5056, "7x + 18": 5057, "7.  4.  Solve for x: ": 5058, "8x + 18": 5059, "8x - 14": 5060, "9 6.  x = -": 5061, "9, 1) = ": 5062, "9!/(1!(": 5063, "9.  6.  Solve for x: ": 5064, "] = 0": 5065, " = 45": 5066, " = (x + 4)": 5067, " = (x - 8)": 5068, " = (x + 2)": 5069, " = (x + 6)": 5070, " + 15": 5071, ", 72": 5072, ", 66": 5073, ", 43": 5074, "2.  Therefore x^2 + ": 5075, "3.  Therefore x^2 + ": 5076, " 2.  Solve x^2 - ": 5077, "10x - 1": 5078, "1/2 6.  ": 5079, "60Â°) = â3": 5080, ".  Solution: Differentiate term by term: d/dx[": 5081, "12 and multiply to ": 5082, "x = 3.# Linear Equations -- Practice ": 5083, "1)x = ": 5084, ", 32": 5085, " = 29": 5086, " = 0.  ## Answer Key 1.  x = ": 5087, " = 3x - 1": 5088, " and g(x) = 2x + 1": 5089, "18x^2.  Answer: f'(x) = ": 5090, "160": 5091, "16x^2 - ": 5092, "4x - 2)": 5093, "2x - 20": 5094, "2x - 35": 5095, "136": 5096, "13 leaves remainder ": 5097, " mod 15": 5098, " mod 13": 5099, "-3 + ": 5100, "5x + 15": 5101, " = 42": 5102, "5x - 8": 5103, "5x - 12": 5104, ").  3.  Solve x^2 + ": 5105, "28 5.  ": 5106, "5)x = ": 5107, "8)x + ": 5108, "8).  ## Answer Key 1.  ": 5109, "8)).  Solution: First g(": 5110, " = 8x - 2": 5111, "3.  Answer: 13": 5112, "36 3.  ": 5113, "4 2.  f'(x) = ": 5114, " divided by 13 leaves remainder ": 5115, "/4 + 5": 5116, "/4x^4 + C.  Answer: ": 5117, ").  ## Answer Key 1.  1 2.  ": 5118, "/6 + ": 5119, "/9 + ": 5120, "/8 and give the answer in lowest terms.  ## Answer Key 1.  ": 5121, "6x - 9": 5122, "cos(45Â°) = â2/2.  Answer: ": 5123, "Compute 7/3": 5124, "6x + 3": 5125, "  ## Definition Probability measures the likelihood of an event as a number between 0 and 1, equal to favourable outcomes divided by equally likely outcomes.  ## Rules For equally likely outcomes, P(event) = favourable / total.  Independent events multiply: P(A and B) = P(A)*P(B).  The number of k-subsets of an n-set is the binomial coefficient C(n, k).  ## Worked Examples 1.  A fair six-sided die is rolled once.  What is the probability of rolling exactly 5": 5126, "x^5 + C 2.  ": 5127, "  ## Definition Trigonometry relates the angles and side ratios of right triangles through the functions sine, cosine and tangent.  ## Rules Standard exact values: sin(30Â°) = 1/2, cos(45Â°) = â2/2, tan(60Â°) = â3.  sin(x) is positive in quadrants I and II; cos(x) is positive in quadrants I and IV.  The Pythagorean identity states sin^2(Î¸) + cos^2(Î¸) = 1.  ## Worked Examples 1.  Find the exact value of tan(90Â°).  Solution: The standard exact value is tan(90Â°) = undefined.  Answer: ": 5128, ").  Solution: First g(-3": 5129, "x^2.  2.  ": 5130, "9x + 7": 5131, "-6 + ": 5132, "8x - 10": 5133, "8x - 20": 5134, " + 5/1": 5135, "9 - 1)!) = ": 5136, "7x - 5": 5137, ").  Solution: The standard exact value is cos(45Â°) = â2/2.  Answer: ": 5138, " = 10.  Answer: ": 5139, " 3.  x = -9": 5140, " + 3/5": 5141, "-8 + ": 5142, "7.  Answer: 27": 5143, ", 75": 5144, "A fair six-sided die is rolled once.  What is the probability of rolling exactly 6? 6.  ": 5145, " and height 2.  Find its area.  Solution: Area = (1/2)*": 5146, " and height 4.  Find its area.  Solution: Area = (1/2)*": 5147, ", perimeter = 48": 5148, "A fair six-sided die is rolled once.  What is the probability of rolling exactly 2? 3.  ": 5149, "A fair six-sided die is rolled once.  What is the probability of rolling exactly 2? 4.  ": 5150, "-3x^2 + 10x - ": 5151, " distinct items, how many subsets of size 1 exist?    Solution: The number of k-subsets of an n-set is C(9, 1) = ": 5152, "x; combine the terms: 1": 5153, "x^3 + 1/2x^2 - 3 + C": 5154, "yes 6.  ": 5155, " = 0.  4.  Factor x^2 + ": 5156, "Find the exact value of cos(45Â°).  Solution: The standard exact value is cos(45Â°) = â2/2.  Answer: ": 5157, "x^3.  Solution: By the power rule, d/dx[6x^3": 5158, "3x^(3 - 1) = 18x^2.  Answer: f'(x) = ": 5159, "Find the exact value of sin(60Â°).  Solution: The standard exact value is sin(": 5160, "4.  Solution: Subtract 8": 5161, "5.  Solution: Subtract 7": 5162, "Evaluate the definite integral â« from 1 to 2 of 3": 5163, " a prime number? 2.  Find lcm(": 5164, "3x^2 + (3*": 5165, "x = 2  ## Exercises 1.  Solve for x: ": 5166, " = 2.  Answer: 2": 5167, " = 2.  Answer: x = 2  ## Exercises 1.  Solve for x: ": 5168, ").  Solution: Apply FOIL: 3*3x^2 + (3*": 5169, ", compute f(g(-3)).  Solution: First g(-3": 5170, "] = 6*3x^(3 - 1) = 18x^2.  Answer: f'(x) = ": 5171, "4x dx = 2x^2, â« ": 5172, "-2x] = -2, so f'(x) = ": 5173, "-5x] = -5, so f'(x) = ": 5174, "2x] = 2, so f'(x) = ": 5175, "0x^2] = 0": 5176, "9!/(1!(9 - 1)!) = ": 5177, "60Â°) = â3/2.  Answer: â3/2": 5178, "8)).  Solution: First g(8": 5179, "  ## Definition Probability measures the likelihood of an event as a number between 0 and 1, equal to favourable outcomes divided by equally likely outcomes.  ## Rules For equally likely outcomes, P(event) = favourable / total.  Independent events multiply: P(A and B) = P(A)*P(B).  The number of k-subsets of an n-set is the binomial coefficient C(n, k).  ## Worked Examples 1.  A fair six-sided die is rolled once.  What is the probability of rolling exactly 5?    Solution: There is 1 favourable outcome out of 6 equally likely outcomes, so P = 1/6.  Answer: 1/6 2.  ": 5180, "  ## Definition Trigonometry relates the angles and side ratios of right triangles through the functions sine, cosine and tangent.  ## Rules Standard exact values: sin(30Â°) = 1/2, cos(45Â°) = â2/2, tan(60Â°) = â3.  sin(x) is positive in quadrants I and II; cos(x) is positive in quadrants I and IV.  The Pythagorean identity states sin^2(Î¸) + cos^2(Î¸) = 1.  ## Worked Examples 1.  Find the exact value of tan(90Â°).  Solution: The standard exact value is tan(90Â°) = undefined.  Answer: undefined 2.  ": 5181, " distinct items, how many subsets of size 1 exist?    Solution: The number of k-subsets of an n-set is C(9, 1) = 9!/(1!(9 - 1)!) = ": 5182, "x^3.  Solution: By the power rule, d/dx[6x^3] = 6*3x^(3 - 1) = 18x^2.  Answer: f'(x) = ": 5183, "Find the exact value of sin(60Â°).  Solution: The standard exact value is sin(60Â°) = â3/2.  Answer: â3/2": 5184, "0x^2] = 0x, d/dx[": 5185, " distinct items, how many subsets of size 1 exist?    Solution: The number of k-subsets of an n-set is C(9, 1) = 9!/(1!(9 - 1)!) = 9.  Answer: ": 5186, "x^3.  Solution: By the power rule, d/dx[6x^3] = 6*3x^(3 - 1) = 18x^2.  Answer: f'(x) = 18x^2": 5187, "*4": 5188, "-9 - ": 5189, "0x - 1": 5190, "0.  They are ": 5191, "115": 5192, "114": 5193, "1x^1": 5194, "1 5.  x = -": 5195, "210": 5196, "240": 5197, "2 4.  x = ": 5198, "2x - 14": 5199, "3x - 16": 5200, "3x - 13": 5201, "4  ## Exercises 1.  Solve for x: ": 5202, "4  ## Definition A linear equation is an equality that can be written as ax + b = 0 with a â  0; its graph is a straight line.  ## Rules To solve ax + b = cx + d, move the variable terms to one side: (a - c)x = d - b, then divide by the coefficient of x, provided a â  c.  ## Worked Examples 1.  Solve for x: ": 5203, "4*sin(2x)": 5204, "4 4.  x = ": 5205, "4x + 17": 5206, "5, so ": 5207, "5.# Algebra -- Practice ": 5208, "5 6.  x = -": 5209, "5x - 19": 5210, "6 and multiply to ": 5211, "6  ## Exercises 1.  Solve for x: ": 5212, "6 and multiply to -": 5213, "6 5.  x = -": 5214, "6 4.  x = ": 5215, "6x - 14": 5216, "6x + 19": 5217, "7, so x = -": 5218, "7, 2) = ": 5219, "7!/(2!(": 5220, "7^2 = 4": 5221, "8 5.  x = -": 5222, "8 3.  x = ": 5223, "8x + 17": 5224, "9x + 2": 5225, "9Ï; circumference = 2Ïr = 2*Ï*": 5226, "9x - 19": 5227, "9x - 11": 5228, " = (x + 1)": 5229, " - 6": 5230, " - 8": 5231, ", 16": 5232, ", 50": 5233, "2.  Find its area and circumference (leave answers in terms of Ï).  Solution: Area = Ïr^2 = Ï*2^2 = 4Ï; circumference = 2Ïr = 2*Ï*2 = 4Ï.  Answer: area = 4Ï, circumference = 4": 5234, "3.  Find its area and circumference (leave answers in terms of Ï).  Solution: Area = Ïr^2 = Ï*3^2 = 9Ï; circumference = 2Ïr = 2*Ï*3 = 6Ï.  Answer: area = 9Ï, circumference = 6": 5235, "6.  Solution: Find two numbers that add to ": 5236, "6.  Solution: Find two numbers that add to -": 5237, " 2.  Compute 7": 5238, " 2.  Find the derivative of f(x) = -4": 5239, "10 5.  x = -": 5240, "10 6.  x = -": 5241, "10x + 16": 5242, "10.  3.  Solve for x: ": 5243, "x = -6": 5244, " 3.  -2": 5245, " 6.  17": 5246, " 4.  -3": 5247, "15x - ": 5248, "12x - ": 5249, "1) / ": 5250, "20, so x = -": 5251, "(x - 7).  Answer: ": 5252, "182": 5253, "169": 5254, "45 4.  ": 5255, ".  5.  What is ": 5256, ".  3.  Compute ": 5257, "2x - 10": 5258, "4)).  Solution: First g(": 5259, "132": 5260, "3).  ## Answer Key 1.  ": 5261, "1x - 10": 5262, "2x + 15": 5263, "5x + 10": 5264, "5x - 3": 5265, ").  2.  Factor x^2 + ": 5266, ").  2.  Solve x^2 + ": 5267, ").  2.  Factor x^2 - ": 5268, ").  3.  Factor x^2 - ": 5269, " at x = 2.  Solution: f(": 5270, ").  6.  Compute ": 5271, ").  5.  Solve x^2 - ": 5272, "30 4.  ": 5273, "5)).  Solution: First g(": 5274, " = 6x - 2": 5275, "6.  Answer: 36": 5276, "6.  Answer: 6 2.  ": 5277, "7)x - ": 5278, "25x^2 + ": 5279, "190": 5280, " = 8*cos(2x).  Answer: f'(x) = ": 5281, " = 9x - 2": 5282, "1) = (": 5283, ").  ## Answer Key 1.  -1": 5284, "/1 = 2": 5285, ", so x = -6": 5286, "/7.  Answer: ": 5287, ", so x = 8": 5288, ", so x = 10": 5289, "8.  Then f(": 5290, "8.  They are ": 5291, "/9 and give the answer in lowest terms.  ## Answer Key 1.  ": 5292, "  ## Definition Integration is the inverse of differentiation.  The indefinite integral â« f(x) dx is a family of antiderivatives differing by a constant C.  ## Rules Power rule for integration: â« x^n dx = x^(n+1)/(n+1) + C for n â  -1.  A definite integral â« from a to b f(x) dx equals F(b) - F(a) for any antiderivative F.  ## Worked Examples 1.  Evaluate the indefinite integral â« 6": 5293, "  ## Definition Integration is the inverse of differentiation.  The indefinite integral â« f(x) dx is a family of antiderivatives differing by a constant C.  ## Rules Power rule for integration: â« x^n dx = x^(n+1)/(n+1) + C for n â  -1.  A definite integral â« from a to b f(x) dx equals F(b) - F(a) for any antiderivative F.  ## Worked Examples 1.  Evaluate the indefinite integral â« 5": 5294, " dx.  Solution: â« 2x^3": 5295, "5.  Answer: f'(x) = ": 5296, "1.  Answer: 21": 5297, "2 to 3": 5298, " - -11": 5299, ").  Solution: First g(-4": 5300, " + 9/3": 5301, "7x + 8": 5302, "9x + 10": 5303, "7 - 2)!) = ": 5304, "Evaluate the definite integral â« from 2 to 3 of 4": 5305, " + 5/6": 5306, "Find its area and perimeter.  Solution: Area = 2*": 5307, "7x - 6": 5308, "7x - 9": 5309, "7x - 10": 5310, "7x - 12": 5311, "4 + C 6.  ": 5312, " = 3*2": 5313, " = 3*3": 5314, " 6.  area = 64Ï, circumference = 16Ï.# Geometry -- Practice ": 5315, " 3.  x = -10": 5316, " 6.  x = 0": 5317, ", 93": 5318, ", 98": 5319, "Ï.  Answer: area = 49Ï, circumference = 14": 5320, "Find its area and circumference (leave answers in terms of Ï).  Solution: Area = Ïr^2 = Ï*7^2 = 4": 5321, ".  Answer: -1/3": 5322, "9x - 2": 5323, "9x - 6": 5324, "9x - 15": 5325, "A fair six-sided die is rolled once.  What is the probability of rolling exactly 3? 4.  ": 5326, "â3/2 2.  ": 5327, "â3/2 5.  ": 5328, " and height 10.  Find its area.  3.  ": 5329, " and height 2.  Find its area.  6.  ": 5330, " = 0.  2.  Solve x^2 - ": 5331, "x; combine the terms: -1/3": 5332, "A fair six-sided die is rolled once.  What is the probability of rolling exactly 4?  ## Answer Key 1.  ": 5333, ".  Solution: f(8": 5334, ".  Solution: f(10": 5335, ".  Solution: f(-7": 5336, "A fair six-sided die is rolled once.  What is the probability of rolling exactly 5? 6.  ": 5337, "A fair six-sided die is rolled once.  What is the probability of rolling exactly 5? 4.  ": 5338, "% of 800? 6.  ": 5339, " and -1.  Therefore x^2 + ": 5340, " = 0.  5.  Factor x^2 + ": 5341, " and give the answer in lowest terms.  6.  Compute ": 5342, "  ## Definition Probability measures the likelihood of an event as a number between 0 and 1, equal to favourable outcomes divided by equally likely outcomes.  ## Rules For equally likely outcomes, P(event) = favourable / total.  Independent events multiply: P(A and B) = P(A)*P(B).  The number of k-subsets of an n-set is the binomial coefficient C(n, k).  ## Worked Examples 1.  From 10": 5343, " = 0.  4.  Solve x^2 - ": 5344, " = 4x - 3": 5345, " 6.  1.# Trigonometry -- Practice ": 5346, "  ## Definition Geometry studies shapes, their properties and their measurement.  Common measurements are area (the space inside a shape) and perimeter or circumference (its boundary length).  ## Rules Rectangle area = width * height; perimeter = 2*(width + height).  Triangle area = (1/2)*base*height.  Circle area = Ïr^2 and circumference = 2Ïr.  ## Worked Examples 1.  A circle has radius 2.  Find its area and circumference (leave answers in terms of Ï).  Solution: Area = Ïr^2 = Ï*2^2 = 4Ï; circumference = 2Ïr = 2*Ï*2 = 4Ï.  Answer: area = 4Ï, circumference = 4": 5347, "  ## Definition Geometry studies shapes, their properties and their measurement.  Common measurements are area (the space inside a shape) and perimeter or circumference (its boundary length).  ## Rules Rectangle area = width * height; perimeter = 2*(width + height).  Triangle area = (1/2)*base*height.  Circle area = Ïr^2 and circumference = 2Ïr.  ## Worked Examples 1.  A circle has radius 3.  Find its area and circumference (leave answers in terms of Ï).  Solution: Area = Ïr^2 = Ï*3^2 = 9Ï; circumference = 2Ïr = 2*Ï*3 = 6Ï.  Answer: area = 9Ï, circumference = 6": 5348, "9Ï, circumference = 6Ï.# Geometry -- Practice ": 5349, "2*cos(2x) = 8*cos(2x).  Answer: f'(x) = ": 5350, "] = 4*2*cos(2x) = 8*cos(2x).  Answer: f'(x) = ": 5351, " distinct items, how many subsets of size 2 exist?    Solution: The number of k-subsets of an n-set is C(7, 2) = ": 5352, "x^2 + C.  Answer: 1/2": 5353, "A circle has radius 4.  Find its area and circumference (leave answers in terms of Ï).  3.  ": 5354, " a prime number? 2.  Find gcd(": 5355, " a prime number? 5.  Is ": 5356, "x^1 dx.  Solution: â« 1x^1": 5357, "1 + 1) x^(1 + 1) + C = 1/2": 5358, " = 5.  Answer: x = 5": 5359, " at x = 10.  Solution: f(10": 5360, "*sin(2x).  Solution: By the chain rule, d/dx[4*sin(2x)": 5361, " dx = 2/(3 + 1) x^(3 + 1) + C": 5362, " = 4.  Answer: x = 4": 5363, " = 6.  Answer: 6": 5364, " = 6.  Answer: x = 6": 5365, "^3/3 - 4*1^3/3": 5366, "x^2 dx = [4x^3/3] from 1 to ": 5367, " at x = -7.  Solution: f(-7": 5368, ", compute f(g(-4)).  Solution: First g(-4": 5369, " at x = 8.  Solution: f(8": 5370, "13x + 42": 5371, "Evaluate the indefinite integral â« 2x^3 dx.  Solution: â« 2x^3": 5372, " = -6, so x = -6": 5373, "1.  Then f(-1": 5374, " = -6.  Answer: x = -6  ## Exercises 1.  Solve for x: ": 5375, " = -4.  Answer: x = -4  ## Exercises 1.  Solve for x: ": 5376, " dx = 1/(1 + 1) x^(1 + 1) + C = 1/2": 5377, " dx.  Solution: â« -1x^2 dx = -1/3x^3, â« -": 5378, " = 1/2x^4 + C.  Answer: ": 5379, "1x dx = -1/2x^2, â« -": 5380, "1x dx = -1/2x^2, â« ": 5381, " dx.  Solution: â« -3x^2 dx = -1x^3, â« -": 5382, " = 12.  Answer: 12 2.  ": 5383, "3x dx = 3/2x^2, â« ": 5384, "1x dx = 1/2x^2, â« -": 5385, " = 7.  Answer: x = 7  ## Exercises 1.  Solve for x: ": 5386, "2x dx = -1x^2, â« -": 5387, "7 = 14Ï.  Answer: area = 49Ï, circumference = 14": 5388, "-3x] = -3, so f'(x) = ": 5389, ") = 28.  Answer: area = ": 5390, "0.  They are 0 and ": 5391, "7!/(2!(7 - 2)!) = ": 5392, "9Ï; circumference = 2Ïr = 2*Ï*7 = 14Ï.  Answer: area = 49Ï, circumference = 14": 5393, "1) / gcd(": 5394, "20, so x = -20": 5395, "4)).  Solution: First g(4": 5396, " at x = 2.  Solution: f(2) = ": 5397, "5)).  Solution: First g(5": 5398, "Find its area and circumference (leave answers in terms of Ï).  Solution: Area = Ïr^2 = Ï*7^2 = 49Ï; circumference = 2Ïr = 2*Ï*7 = 14Ï.  Answer: area = 49Ï, circumference = 14": 5399, "  ## Definition Geometry studies shapes, their properties and their measurement.  Common measurements are area (the space inside a shape) and perimeter or circumference (its boundary length).  ## Rules Rectangle area = width * height; perimeter = 2*(width + height).  Triangle area = (1/2)*base*height.  Circle area = Ïr^2 and circumference = 2Ïr.  ## Worked Examples 1.  A circle has radius 2.  Find its area and circumference (leave answers in terms of Ï).  Solution: Area = Ïr^2 = Ï*2^2 = 4Ï; circumference = 2Ïr = 2*Ï*2 = 4Ï.  Answer: area = 4Ï, circumference = 4Ï 2.  ": 5400, "  ## Definition Geometry studies shapes, their properties and their measurement.  Common measurements are area (the space inside a shape) and perimeter or circumference (its boundary length).  ## Rules Rectangle area = width * height; perimeter = 2*(width + height).  Triangle area = (1/2)*base*height.  Circle area = Ïr^2 and circumference = 2Ïr.  ## Worked Examples 1.  A circle has radius 3.  Find its area and circumference (leave answers in terms of Ï).  Solution: Area = Ïr^2 = Ï*3^2 = 9Ï; circumference = 2Ïr = 2*Ï*3 = 6Ï.  Answer: area = 9Ï, circumference = 6Ï 2.  ": 5401, "] = 4*2*cos(2x) = 8*cos(2x).  Answer: f'(x) = 8*cos(2x)": 5402, " distinct items, how many subsets of size 2 exist?    Solution: The number of k-subsets of an n-set is C(7, 2) = 7!/(2!(7 - 2)!) = ": 5403, "x^1 dx.  Solution: â« 1x^1 dx = 1/(1 + 1) x^(1 + 1) + C = 1/2": 5404, " = 5.  Answer: x = 5  ## Exercises 1.  Solve for x: ": 5405, "*sin(2x).  Solution: By the chain rule, d/dx[4*sin(2x)] = 4*2*cos(2x) = 8*cos(2x).  Answer: f'(x) = 8*cos(2x)": 5406, " dx = 2/(3 + 1) x^(3 + 1) + C = 1/2x^4 + C.  Answer: ": 5407, " = 4.  Answer: x = 4  ## Exercises 1.  Solve for x: ": 5408, " = 6.  Answer: x = 6  ## Exercises 1.  Solve for x: ": 5409, "Evaluate the indefinite integral â« 2x^3 dx.  Solution: â« 2x^3 dx = 2/(3 + 1) x^(3 + 1) + C = 1/2x^4 + C.  Answer: ": 5410, " distinct items, how many subsets of size 2 exist?    Solution: The number of k-subsets of an n-set is C(7, 2) = 7!/(2!(7 - 2)!) = 2": 5411, "x^1 dx.  Solution: â« 1x^1 dx = 1/(1 + 1) x^(1 + 1) + C = 1/2x^2 + C.  Answer: 1/2": 5412, "*12": 5413, "-5*": 5414, "/8 2.  ": 5415, "1 = 2": 5416, "1x + 14": 5417, "1x - 11": 5418, "1x + 2)": 5419, "225": 5420, "2, 1) = ": 5421, "2!/(1!(": 5422, "38 2.  ": 5423, "3.# Linear Equations -- Practice ": 5424, "3.# Functions -- Practice ": 5425, "3x + 11": 5426, "3x + 13": 5427, "4, so ": 5428, "42 2.  ": 5429, "4.# Arithmetic -- Practice ": 5430, "4*sin(1x)": 5431, "4.# Functions -- Practice ": 5432, "4 5.  x = -": 5433, "4x + 16": 5434, "4x - 11": 5435, "4 = 4*": 5436, "5 = -": 5437, "5  ## Definition A linear equation is an equality that can be written as ax + b = 0 with a â  0; its graph is a straight line.  ## Rules To solve ax + b = cx + d, move the variable terms to one side: (a - c)x = d - b, then divide by the coefficient of x, provided a â  c.  ## Worked Examples 1.  Solve for x: ": 5438, "5x + 11": 5439, "61, ": 5440, "7x - 1": 5441, "7 3.  x = ": 5442, "7x + 17": 5443, "7x + 16": 5444, "7x + 19": 5445, "8).  Answer: ": 5446, "8 leaves remainder ": 5447, "9x - 1": 5448, "9 5.  x = ": 5449, "9x - 14": 5450, " = (x + 3)": 5451, " - 20": 5452, " - 14": 5453, ", 45": 5454, ", 64": 5455, "x = 9": 5456, "x = 4 or x = -": 5457, "x = 6 2.  Solve for x: ": 5458, "x = 5 2.  Solve for x: ": 5459, "4.  Find its area and circumference (leave answers in terms of Ï).  2.  ": 5460, "6.  Therefore x^2 + ": 5461, "5.  Therefore x^2 + ": 5462, "1/1": 5463, "1/9": 5464, ") = 30.  Answer: area = ": 5465, "109": 5466, "10  ## Exercises 1.  Solve for x: ": 5467, "10.  5.  Solve for x: ": 5468, " 6.  -2": 5469, " 4.  3": 5470, "x^2 - 2": 5471, "  ## Exercises 1.  Find the derivative of f(x) = 4": 5472, "1)x - ": 5473, ", 34": 5474, " = 20.  Answer: ": 5475, "/2 + ": 5476, "20x^3.  Answer: f'(x) = ": 5477, "(x + 5).  Answer: ": 5478, "(x - 2).  Answer: ": 5479, "â3": 5480, ".  3.  What is ": 5481, "13x + 4": 5482, "-2 + ": 5483, " = 4*cos(1x).  Answer: f'(x) = ": 5484, "2.  Answer: f'(x) = 12x^2": 5485, ").  2.  Solve x^2 - ": 5486, ").  4.  Factor x^2 - ": 5487, " at x = 4.  4.  ": 5488, " at x = 2.  5.  ": 5489, " at x = -5.  Solution: f(": 5490, " = 8.  Answer: ": 5491, " = 8, so x = 8": 5492, "1x + 20": 5493, " divided by 8 leaves remainder ": 5494, " * 1": 5495, " * 3": 5496, "260": 5497, "2/3 2.  ": 5498, ", so x = 18": 5499, "-5 + ": 5500, "-5 and ": 5501, "/9 + 7": 5502, "/9 + 4": 5503, "/8.  Answer: ": 5504, "2 - 1)!) = ": 5505, "8x + 8": 5506, "sin(30Â°) = 1/2.  Answer: ": 5507, "x^3.  ## Answer Key 1.  ": 5508, "Compute 79": 5509, " - -8": 5510, " - -13": 5511, " - -19": 5512, "6x + 0": 5513, "6x + 9": 5514, "  ## Definition Probability measures the likelihood of an event as a number between 0 and 1, equal to favourable outcomes divided by equally likely outcomes.  ## Rules For equally likely outcomes, P(event) = favourable / total.  Independent events multiply: P(A and B) = P(A)*P(B).  The number of k-subsets of an n-set is the binomial coefficient C(n, k).  ## Worked Examples 1.  A fair six-sided die is rolled once.  What is the probability of rolling exactly 2": 5515, "232": 5516, "x^2.  Solution: By the power rule, d/dx[": 5517, "21 3.  ": 5518, "7.  Therefore x^2 + ": 5519, " + 9/1": 5520, " + 9/6": 5521, " + 6/7": 5522, ", perimeter = 32 2.  ": 5523, "9.  Then f(": 5524, "Evaluate the definite integral â« from 1 to 3 of 3": 5525, "3 2.  f'(x) = ": 5526, "8x - 3": 5527, "8x - 7": 5528, "8x - 15": 5529, "Evaluate the definite integral â« from 2 to 3 of 1": 5530, "Find its area and perimeter.  Solution: Area = 5*": 5531, ").  Solution: The standard exact value is sin(30Â°) = 1/2.  Answer: ": 5532, " = 10, so x = 10": 5533, "2) = (": 5534, "4x^3] = 4*": 5535, ", 90": 5536, ", 99": 5537, ", perimeter = 28 2.  ": 5538, "2 + C 5.  ": 5539, " + 3/1": 5540, "x^2 - 3x + 2)": 5541, "9x - 4": 5542, ", 83": 5543, ", 85": 5544, ", 86": 5545, "Evaluate the definite integral â« from 3 to 4 of 3": 5546, " and height 8.  Find its area.  5.  ": 5547, ", 79": 5548, "â2/2 3.  ": 5549, "â2/2.# Trigonometry -- Practice ": 5550, "x^3 - 1/2x^2 - 3 + C": 5551, "A fair six-sided die is rolled once.  What is the probability of rolling exactly 6? 3.  ": 5552, "A fair six-sided die is rolled once.  What is the probability of rolling exactly 1?    Solution: There is 1 favourable outcome out of 6 equally likely outcomes, so P = 1/6.  Answer: 1/6  ## Exercises 1.  ": 5553, ", perimeter = 46": 5554, " = -11.  Then (": 5555, "A fair six-sided die is rolled once.  What is the probability of rolling exactly 2? 6.  ": 5556, ") = (4": 5557, ") = (6": 5558, ") = (7": 5559, "1*cos(1x) = 4*cos(1x).  Answer: f'(x) = ": 5560, "A fair six-sided die is rolled once.  What is the probability of rolling exactly 4? 4.  ": 5561, "  ## Exercises 1.  Expand (4x + ": 5562, " distinct items, how many subsets of size 1 exist?    Solution: The number of k-subsets of an n-set is C(2, 1) = ": 5563, "% of 50? 3.  ": 5564, "A fair six-sided die is rolled once.  What is the probability of rolling exactly 5?    Solution: There is 1 favourable outcome out of 6 equally likely outcomes, so P = 1/6.  Answer: 1/6  ## Exercises 1.  ": 5565, " and g(x) = 4x + 9, compute f(g(": 5566, " = 0.  Solution: The roots must add to -1 and multiply to -": 5567, ".  Then (5 - ": 5568, ".  Then (6 - ": 5569, " = 4x - 2": 5570, "Solve sin(x) = 1/2 for x in [0Â°, 360Â°].  3.  Solve sin(x) = 1/2 for x in [0Â°, 360Â°].  4.  ": 5571, "x = 30Â° or x = 150Â° 5.  x = 30Â° or x = 150Â° 6.  x = 60Â° or x = 300Â°.# Trigonometry -- Practice ": 5572, "x^4.  Solution: By the power rule, d/dx[5x^4": 5573, "4x^(4 - 1) = 20x^3.  Answer: f'(x) = ": 5574, "] = 4*1*cos(1x) = 4*cos(1x).  Answer: f'(x) = ": 5575, "Solve sin(x) = 1/2 for x in [0Â°, 360Â°].  ## Answer Key 1.  x = 60Â° or x = 300Â° 2.  ": 5576, " = 18, so x = 18": 5577, "] = 5*4x^(4 - 1) = 20x^3.  Answer: f'(x) = ": 5578, "x^3.  Solution: By the power rule, d/dx[4x^3] = 4*": 5579, "3x^(3 - 1) = 12x^": 5580, "Expand (5x - 5) * (": 5581, "3, compute f(g(-2)": 5582, "Find the exact value of sin(90Â°).  Solution: The standard exact value is sin(": 5583, "Evaluate the definite integral â« from 1 to 2 of 1": 5584, "Find the exact value of cos(90Â°).  Solution: The standard exact value is cos(": 5585, "no 6.  no.# Number Theory -- Practice ": 5586, " a prime number? 5.  Find lcm(": 5587, ") = 1.  Answer: 1  ## Exercises 1.  Is ": 5588, ") = 38.  Answer: area = ": 5589, "Find the exact value of sin(30Â°).  Solution: The standard exact value is sin(30Â°) = 1/2.  Answer: ": 5590, "*sin(1x).  Solution: By the chain rule, d/dx[4*sin(1x)": 5591, "A circle has radius 1.  Find its area and circumference (leave answers in terms of Ï).  6.  ": 5592, " mod 8.  Solution: ": 5593, "A circle has radius 7.  Find its area and circumference (leave answers in terms of Ï).  4.  ": 5594, " = 5.  Answer: x = 5 2.  Solve for x: ": 5595, "x^2 dx.  Solution: â« from 1 to 2": 5596, "A circle has radius 2.  Find its area and circumference (leave answers in terms of Ï).  4.  ": 5597, " = 4.  Answer: 4 2.  ": 5598, " = 6.  Answer: x = 6 2.  Solve for x: ": 5599, "no 4.  1 5.  ": 5600, "^3/3 - 4*2^3/3": 5601, " 6.  1/2.# Trigonometry -- Practice ": 5602, " dx.  Solution: â« 2x^2 dx = 2/3x^3, â« -": 5603, "90Â°) = 0.  Answer: ": 5604, ").  4.  Solve sin(x) = 1/2 for x in [0Â°, 360Â°].  5.  Solve cos(x) = 1/2 for x in [0Â°, 360Â°].  6.  ": 5605, "Evaluate the definite integral â« from 2 to 2 of 4": 5606, " = 10.  Answer: x = 10  ## Exercises 1.  Solve for x: ": 5607, ") = 42.  Answer: area = ": 5608, " = 3.  Answer: x = 3  ## Exercises 1.  Solve for x: ": 5609, "x = -10  ## Exercises 1.  Solve for x: ": 5610, " dx.  Solution: â« -3x^2 dx = -1x^3, â« ": 5611, " = 8.  Answer: x = 8 2.  Solve for x: ": 5612, " = 8.  Answer: x = 8  ## Exercises 1.  Solve for x: ": 5613, "yes.# Number Theory -- Practice ": 5614, " = -10.  Answer: x = -10  ## Exercises 1.  Solve for x: ": 5615, "4x dx = -2x^2, â« ": 5616, "1 dx = 1x; combine the terms: ": 5617, " dx.  Solution: â« 4x^2 dx = 4/3x^3, â« -": 5618, ") = 40.  Answer: area = ": 5619, "2!/(1!(2 - 1)!) = ": 5620, "4 = 4*4": 5621, " at x = -5.  Solution: f(-5": 5622, "  ## Definition Probability measures the likelihood of an event as a number between 0 and 1, equal to favourable outcomes divided by equally likely outcomes.  ## Rules For equally likely outcomes, P(event) = favourable / total.  Independent events multiply: P(A and B) = P(A)*P(B).  The number of k-subsets of an n-set is the binomial coefficient C(n, k).  ## Worked Examples 1.  A fair six-sided die is rolled once.  What is the probability of rolling exactly 2?    Solution: There is 1 favourable outcome out of 6 equally likely outcomes, so P = 1/6.  Answer: 1/6 2.  ": 5623, " distinct items, how many subsets of size 1 exist?    Solution: The number of k-subsets of an n-set is C(2, 1) = 2!/(1!(2 - 1)!) = ": 5624, "x^4.  Solution: By the power rule, d/dx[5x^4] = 5*4x^(4 - 1) = 20x^3.  Answer: f'(x) = ": 5625, "] = 4*1*cos(1x) = 4*cos(1x).  Answer: f'(x) = 4*cos(1x)": 5626, "x^3.  Solution: By the power rule, d/dx[4x^3] = 4*3x^(3 - 1) = 12x^": 5627, "Find the exact value of sin(90Â°).  Solution: The standard exact value is sin(90Â°": 5628, "Find the exact value of cos(90Â°).  Solution: The standard exact value is cos(90Â°) = 0.  Answer: ": 5629, "*sin(1x).  Solution: By the chain rule, d/dx[4*sin(1x)] = 4*1*cos(1x) = 4*cos(1x).  Answer: f'(x) = 4*cos(1x)": 5630, "x^4.  Solution: By the power rule, d/dx[5x^4] = 5*4x^(4 - 1) = 20x^3.  Answer: f'(x) = 20x^3": 5631, "x^3.  Solution: By the power rule, d/dx[4x^3] = 4*3x^(3 - 1) = 12x^2.  Answer: f'(x) = 12x^2": 5632, "110": 5633, "1 = 9": 5634, "1*sin(3x)": 5635, "1 5.  x = ": 5636, "1x + 17": 5637, "1x + 13": 5638, "1x^4 + C 2.  ": 5639, "2, so ": 5640, "2x - 17": 5641, "2x + 13": 5642, "3, so ": 5643, "3 or x = -": 5644, "32 2.  ": 5645, "3x - 17": 5646, "3, 1) = ": 5647, "3!/(1!(": 5648, "4*sin(3x)": 5649, "4 mod 1": 5650, "4 4.  x = -": 5651, "4x - 16": 5652, "4x + 11": 5653, "4x^3.  Answer: f'(x) = ": 5654, "5.  ## Answer Key 1.  ": 5655, "52 2.  ": 5656, "5x - 18": 5657, "5 6.  x = ": 5658, "5x + 17": 5659, "5x - 16": 5660, "56.  They are ": 5661, "6 = -": 5662, "6x + 18": 5663, "6x^1.  Answer: f'(x) = ": 5664, "7/2": 5665, "7 mod 1": 5666, "7 6.  x = -": 5667, "7  ## Definition A function f maps each input x to exactly one output f(x).  Composition f(g(x)) means applying g first, then f.  ## Rules Evaluate a linear function f(x) = ax + b by substituting the input.  For a composition f(g(x)), compute g(x) first and substitute that value into f.  ## Worked Examples 1.  Evaluate f(x) = ": 5668, "7x + 14": 5669, "7x + 11": 5670, "8 mod 1": 5671, "8, 1) = ": 5672, "8!/(1!(": 5673, "8.  3.  Solve for x: ": 5674, "8, 2) = ": 5675, "8!/(2!(": 5676, "9  ## Exercises 1.  ": 5677, "9 6.  x = ": 5678, "9x - 17": 5679, "9x + 16": 5680, "9x + 11": 5681, " = (x + 5)": 5682, " = (x + 7)": 5683, " = (x - 4)": 5684, " = (x - 6)": 5685, ", 4": 5686, ", 24": 5687, ", 27": 5688, ", 56": 5689, ", 54": 5690, ", 68": 5691, "x = 4 2.  Solve for x: ": 5692, "1.  Find its area and circumference (leave answers in terms of Ï).  2.  ": 5693, "2.  ## Answer Key 1.  f'(x) = ": 5694, "3.  ## Answer Key 1.  f'(x) = ": 5695, "4.  Therefore x^2 - ": 5696, " 2.  Find the derivative of f(x) = -1": 5697, "1/7": 5698, "101": 5699, "105": 5700, "10x - 2": 5701, "10x + 5": 5702, "1/2.# Probability -- Practice ": 5703, "x = -2 2.  Solve for x: ": 5704, " 3.  10": 5705, " 3.  4/3": 5706, " 6.  6": 5707, " 4.  0 5.  ": 5708, "x^2 - 1": 5709, "  ## Exercises 1.  Evaluate the indefinite integral â« 3": 5710, "  ## Exercises 1.  Find the derivative of f(x) = -4": 5711, "  ## Exercises 1.  Find the derivative of f(x) = -3": 5712, "15 4.  ": 5713, ".  Answer: f'(x) = 12*cos(3x)": 5714, "/32": 5715, "12, so x = -": 5716, ", 35": 5717, " = 27": 5718, " = 26.  Answer: ": 5719, " = -2.  Then (": 5720, " = 3*cos(3x).  Answer: f'(x) = ": 5721, " = 16.  Answer: ": 5722, " = 15.  Answer: ": 5723, " = 13.  Answer: 13": 5724, " and g(x) = 5x - 1": 5725, " and g(x) = 5x + 2": 5726, "(x + 6).  Answer: ": 5727, "(x + 3).  Answer: ": 5728, "188": 5729, "16x^2 + ": 5730, "165, perimeter = 5": 5731, ".  6.  What is ": 5732, ".  4.  Compute ": 5733, "138": 5734, "-2 and ": 5735, "2)).  Solution: First g(": 5736, "2x + 12": 5737, " mod 6.  Solution: ": 5738, ") = â2/2.  Answer: ": 5739, " = 46": 5740, "5x - 10": 5741, ").  4.  Solve cos(x) = 1/2 for x in [0Â°, 360Â°].  5.  ": 5742, " at x = 4.  Solution: f(": 5743, ").  5.  Factor x^2 + ": 5744, "3x + 10": 5745, "3x + 12": 5746, "288": 5747, "300": 5748, "6.  Answer: 6": 5749, "/56": 5750, "/5 + 5": 5751, "45Â°) = â2/2.  Answer: ": 5752, "19x - ": 5753, "3.  Answer: 3 2.  ": 5754, "; perimeter = 2*(4": 5755, " divided by 6 ": 5756, " * 2": 5757, "50 2.  ": 5758, "/1 + 7": 5759, ", so x = -4": 5760, "8.  Find its area and circumference (leave answers in terms of Ï).  2.  ": 5761, "*cos(3x).  Answer: f'(x) = 12*cos(3x)": 5762, "  ## Definition The derivative f'(x) measures the rate of change of f at x; it is the slope of the tangent line to the graph of f.  ## Rules Power rule: d/dx[x^n] = n*x^(n-1).  Constants factor out: d/dx[a*f(x)] = a*f'(x).  The derivative of sin(kx) is k*cos(kx) by the chain rule.  ## Worked Examples 1.  Find the derivative of f(x) = -4": 5763, "/9 + 8": 5764, "5.  Answer: 25": 5765, "6x - 6": 5766, "3 - 1)!) = ": 5767, "8x + 9": 5768, "60 5.  ": 5769, "60.  Answer: ": 5770, "  ## Definition Number theory is the study of the integers, especially divisibility, primes and modular arithmetic.  ## Rules gcd(a, b) is the largest integer dividing both a and b; lcm(a, b) = a*b / gcd(a, b).  An integer greater than 1 is prime when it has no positive divisors other than 1 and itself.  a mod m is the remainder of a divided by m.  ## Worked Examples 1.  Compute 9": 5771, "  ## Definition Probability measures the likelihood of an event as a number between 0 and 1, equal to favourable outcomes divided by equally likely outcomes.  ## Rules For equally likely outcomes, P(event) = favourable / total.  Independent events multiply: P(A and B) = P(A)*P(B).  The number of k-subsets of an n-set is the binomial coefficient C(n, k).  ## Worked Examples 1.  A fair six-sided die is rolled once.  What is the probability of rolling exactly 4": 5772, " distinct items, how many subsets of size 1 exist?  ## Answer Key 1.  1/6 2.  ": 5773, ").  Solution: First g(-9": 5774, "7.  Then f(": 5775, "7.  Find its area and circumference (leave answers in terms of Ï).  2.  ": 5776, "7.  Therefore x^2 - ": 5777, " + 9/4": 5778, " + 9/9": 5779, " + 6/6": 5780, "Compute 86": 5781, " 4.  f'(x) = 8x^1": 5782, "7x + 15": 5783, "9x + 0": 5784, "Solution: By the power rule, d/dx[3x^2": 5785, "42 5.  ": 5786, "5 2.  x = -": 5787, "Evaluate the definite integral â« from 2 to 4 of 1": 5788, "8 - 1)!) = ": 5789, "8 - 2)!) = ": 5790, "Find its area and perimeter.  Solution: Area = 10": 5791, " + 8/9": 5792, "A fair coin is flipped 1 times.  What is the probability of 1 heads in a row?  ## Answer Key 1.  ": 5793, "A fair coin is flipped 3 times.  What is the probability of 3 heads in a row?  ## Answer Key 1.  1/6 2.  ": 5794, "2 + C 3.  ": 5795, "1 + C 6.  ": 5796, "1 + C.# Integration -- Practice ": 5797, " = 12*cos(3x).  Answer: f'(x) = 12*cos(3x)": 5798, " + 3/6": 5799, " + 3/8": 5800, ", 84": 5801, ", 89": 5802, "Evaluate the definite integral â« from 0 to 6 of 3": 5803, "-8 and ": 5804, "(x + 3) 2.  ": 5805, "(x + 3).# Algebra -- Practice ": 5806, " and height 14.  Find its area.  5.  ": 5807, " and height 14.  Find its area.  2.  ": 5808, "â3/2 3.  ": 5809, "x^3 - 1/2x^2 - 1 + C": 5810, "1/3x^3 + 2x^2 - ": 5811, " and height 10.  Find its area.  2.  ": 5812, "A fair six-sided die is rolled once.  What is the probability of rolling exactly 1?  ## Answer Key 1.  ": 5813, "  ## Definition Algebra generalizes arithmetic by using symbols, typically letters, to represent numbers that may be unknown or variable.  ## Rules The distributive law a(b + c) = ab + ac lets you expand products.  To factor x^2 + px + q, find two numbers that add to p and multiply to q.  A quadratic x^2 + px + q = 0 with roots r1 and r2 satisfies r1 + r2 = -p and r1*r2 = q.  ## Worked Examples 1.  Expand (5x - ": 5814, "  ## Definition Algebra generalizes arithmetic by using symbols, typically letters, to represent numbers that may be unknown or variable.  ## Rules The distributive law a(b + c) = ab + ac lets you expand products.  To factor x^2 + px + q, find two numbers that add to p and multiply to q.  A quadratic x^2 + px + q = 0 with roots r1 and r2 satisfies r1 + r2 = -p and r1*r2 = q.  ## Worked Examples 1.  Expand (3x + ": 5815, "(x - 2) 2.  ": 5816, " = 0.  6.  Factor x^2 - ": 5817, " = 0.  6.  Solve x^2 - ": 5818, "  ## Exercises 1.  Compute 2": 5819, "  ## Exercises 1.  Expand (1x + ": 5820, " distinct items, how many subsets of size 1 exist?    Solution: The number of k-subsets of an n-set is C(3, 1) = ": 5821,
[...]
